[PAD]
[UNK]
[CLS]
[SEP]
[MASK]
!
"
#
$
%
&
'
(
)
*
+
,
-
.
/
0
1
2
3
4
5
6
7
8
9
:
;
<
=
>
?
@
A
B
C
D
E
F
G
H
I
J
K
L
M
N
O
P
Q
R
S
T
U
V
W
X
Y
Z
[
\
]
^
_
`
a
b
c
d
e
f
g
h
i
j
k
l
m
n
o
p
q
r
s
t
u
v
w
x
y
z
{
|
}
~
¡
¢
£
¤
¥
¦
§
¨
©
ª
«
¬
®
¯
°
±
²
³
´
µ
¶
·
¸
¹
º
»
¼
½
¾
¿
À
Á
Â
Ã
Ä
Å
Æ
Ç
È
É
Ê
Ë
Ì
Í
Î
Ï
Ð
Ñ
Ò
Ó
Ô
Õ
Ö
×
Ø
Ù
Ú
Û
Ü
Ý
Þ
ß
à
á
â
ã
ä
å
æ
ç
è
é
ê
ë
ì
í
î
ï
ð
ñ
ò
ó
ô
õ
ö
÷
ø
ù
ú
û
ü
ý
þ
ÿ
Ā
ā
Ă
ă
ą
Ć
ć
Ĉ
ĉ
Č
č
Ď
ď
Đ
đ
Ē
ē
ĕ
Ė
ė
ę
Ě
ě
Ĝ
Ğ
ğ
Ĥ
ħ
Ĩ
ĩ
Ī
ī
Ĭ
ĭ
Į
į
İ
ı
ĳ
ķ
ĸ
Ĺ
ĺ
Ł
ł
Ń
ń
ņ
ň
ŋ
Ō
ō
ŏ
Ő
ő
Œ
œ
ŕ
Ř
ř
Ś
ś
Ŝ
ŝ
Ş
ş
Š
š
ţ
ť
Ŧ
ũ
Ū
ū
Ŭ
ŭ
ů
Ű
ű
ų
ŵ
Ŷ
ŷ
Ÿ
Ź
ź
Ż
ż
Ž
ž
ſ
Ƃ
ƃ
Ɖ
ƌ
ƍ
Ǝ
Ɛ
ƒ
Ɣ
Ƙ
ƙ
ƚ
ƛ
ƞ
Ɵ
Ơ
ơ
Ƣ
ƣ
Ƨ
Ʃ
Ƭ
ư
Ƴ
ƴ
Ƶ
Ʒ
ƺ
ǀ
ǁ
ǂ
ǃ
Ǆ
Ǉ
ǌ
ǎ
ǐ
ǒ
Ǔ
ǔ
ǚ
ǜ
ǧ
ǫ
ǹ
Ǻ
ǻ
ǽ
Ǿ
ǿ
ȃ
ȅ
ȇ
Ȉ
ȏ
Ȓ
ȓ
ȕ
Ȗ
Ș
ș
ț
Ȝ
ȝ
Ȟ
ȟ
Ƞ
Ȥ
Ȧ
ȱ
ȳ
ȹ
Ɂ
ɐ
ɑ
ɔ
ɖ
ɗ
ə
ɚ
ɛ
ɠ
ɡ
ɢ
ɣ
ɤ
ɥ
ɦ
ɪ
ɳ
ɵ
ɶ
ɸ
ɻ
ɾ
ʀ
ʁ
ʃ
ʈ
ʊ
ʌ
ʎ
ʏ
ʒ
ʡ
ʦ
ʧ
ʳ
ʹ
ʺ
ʻ
ʼ
ʿ
ˁ
˂
˃
ˆ
ˇ
ˈ
ˉ
ˋ
ˌ
ː
˒
˖
˗
˘
˙
˚
˛
˜
˝
˟
ˡ
ˢ
ˣ
˶
˽
̀
́
̂
̃
̄
̅
̇
̈
̉
̊
̋
̌
̒
̓
̔
̗
̛
̟
̠
̥
̦
̧
̯
̲
̴
̵
̶
̸
̹
̽
͂
̓
͌
͍
͕
͖
͘
͛
͜
͞
͢
ͣ
ͦ
ͨ
ͫ
ͬ
ͭ
Ͳ
ͳ
͵
Ͷ
ͷ
͸
͹
ͺ
;
Ϳ
΄
΅
·
Ύ
Ώ
ΐ
Α
Β
Γ
Δ
Ε
Ζ
Η
Θ
Ι
Κ
Λ
Μ
Ν
Ξ
Ο
Π
Ρ
Σ
Τ
Υ
Φ
Χ
Ψ
Ω
ά
έ
ή
ί
ΰ
α
β
γ
δ
ε
ζ
η
θ
ι
κ
λ
μ
ν
ξ
ο
π
ρ
ς
σ
τ
υ
φ
χ
ψ
ω
ϊ
ϋ
ό
ύ
ώ
ϐ
ϑ
ϒ
ϕ
ϖ
Ϫ
Ϭ
ϭ
Ϯ
ϯ
ϰ
ϱ
ϲ
ϳ
ϵ
Є
І
Ї
Љ
Ћ
Ќ
А
Б
В
Г
Д
Е
И
К
Л
М
Н
О
П
Р
С
Т
Ф
Х
Ш
Щ
Ъ
Ь
Э
Ю
Я
а
б
в
г
д
е
ж
з
и
й
к
л
м
н
о
п
р
с
т
у
ф
х
ц
ч
ш
щ
ы
ь
э
ю
я
ё
є
і
ї
ј
њ
ў
џ
Ѣ
Ѳ
Ѵ
ҏ
қ
ҫ
ү
Ҿ
ӑ
Ӓ
Ӕ
ӕ
ӧ
Ө
ӱ
ӳ
ӿ
ր
ց
֞
֠
֦
ּ
־
ֿ
׀
ׅ
׋
א
ב
ח
י
ל
מ
ש
ת
،
ؘ
؟
ء
آ
أ
ؤ
ئ
ا
ب
ة
ت
ث
ج
ح
خ
د
ذ
ر
ز
س
ش
ص
ط
ع
غ
ـ
ف
ق
ك
ل
م
ن
ه
و
ى
ي
ً
ِ
٠
٧
٭
ٰ
ٲ
ڰ
ۢ
ܤ
ܰ
݅
ݎ
ݏ
ݐ
ݔ
ݕ
ݬ
ࡎ
ड
न
ऴ
ा
ि
॔
দ
ব
র
ষ
া
ি
ে
্
য়
଴
ଵ
ଶ
ହ
଼
ଽ
ା
ି
ୀ
୙
ୟ
ୢ
ୣ
୥
୩
୪
୫
୬
୭
୰
ୱ
஺
஼
஽
ா
ீ
ு
ூ
௄
ெ
ே
ை
ோ
ௌ
்
௎
ௐ
௓
௔
௖
ௗ
௘
௚
௛
௜
௟
௠
௡
௢
௥
௦
௧
௨
௩
௫
௱
ఈ
ఉ
ఘ
భ
మ
య
ర
శ
ష
స
ಳ
಴
ವ
ಸ
ಹ
಼
ಿ
ು
ೃ
ೄ
ೋ
ೌ
೏
೐
೒
೓
೔
೗
೘
೙
೚
೜
ೝ
೟
ೠ
ഀ
ഁ
ൈ
ൣ
൧
൫
൬
൯
൰
ඥ
ට
ෑ
෩
฀
ฆ
น
บ
ส
ิ
เ
ใ
้
໿
ሺ
ሻ
ቀ
ቁ
ቄ
ቆ
ቇ
ᴓ
ᴠ
ᴧ
ᴨ
ᵃ
ᵅ
ᵇ
ᵈ
ᵉ
ᵏ
ᵒ
ᵖ
ᵞ
ᵡ
ᵥ
ᵪ
ᵸ
ᶜ
ᶠ
ᶢ
ᶦ
ᶨ
ᶫ
ᶬ
ᶰ
ḉ
Ḋ
ḗ
Ḥ
ḥ
ḱ
ḵ
ṓ
Ṣ
ṣ
ṭ
ṯ
ẋ
ẞ
ạ
ả
ấ
ẵ
ẹ
ẽ
Ế
ế
ễ
ệ
ọ
ỏ
ố
ồ
ộ
ờ
ợ
ủ
ử
ữ
ỳ
ἀ
ἁ
ἄ
ἅ
Ἁ
ἐ
ἑ
ἔ
ἕ
Ἔ
ἠ
ἡ
ἢ
ἤ
ἥ
ἦ
ἧ
Ἡ
ἰ
ἱ
ἴ
ἵ
ἶ
ἷ
Ἰ
ὀ
ὁ
ὂ
ὄ
ὅ
Ὁ
ὐ
ὑ
ὕ
ὗ
ὡ
ὥ
ὦ
ὰ
ά
ὲ
έ
ὴ
ὶ
ί
ὸ
ό
ᾠ
ᾰ
ᾱ
ᾶ
᾽
᾿
ῆ
ῑ
ῖ
ῤ
ῥ
ῦ
ῲ
ῳ
ῶ
ῷ
‐
‑
‒
–
—
―
‖
‗
‘
’
‚
‛
“
”
„
‟
†
‡
•
‣
‥
…
‰
′
″
‴
‵
‹
›
‼
‾
⁀
⁁
⁃
⁄
⁎
⁞
⁥
⁰
ⁱ
⁴
⁵
⁶
⁷
⁸
⁹
⁺
⁻
ⁿ
₀
₁
₂
₃
₄
₅
₆
₈
₊
ₐ
ₑ
ₒ
₡
₤
₪
€
₲
₸
⃗
⃛
⃝
⃞
⃠
⃬
⃰
℃
℅
ℎ
ℑ
ℓ
№
℗
ℜ
™
Ω
ℵ
⅓
⅔
⅕
⅖
⅗
⅘
⅙
⅚
⅛
⅜
⅝
⅞
Ⅰ
Ⅱ
Ⅲ
Ⅳ
Ⅴ
←
↑
→
↓
↔
↕
↖
↗
↘
↙
↦
↧
↨
↪
↱
↳
↵
↷
⇄
⇅
⇆
⇈
⇊
⇋
⇌
⇐
⇑
⇒
⇓
⇔
⇗
⇛
⇠
⇢
⇤
⇥
⇦
⇧
⇨
⇩
∀
∂
∃
∅
∆
∇
∈
∊
∎
∏
∑
−
∓
∕
∗
∘
∙
√
∝
∞
∟
∠
∡
∢
∣
∧
∨
∩
∪
∫
∭
∮
∴
∶
∼
∽
∿
≀
≃
≅
≈
≉
≍
≔
≖
≘
≙
≜
≠
≡
≤
≥
≦
≧
≪
≫
≽
⊃
⊆
⊇
⊕
⊖
⊗
⊘
⊙
⊚
⊝
⊟
⊠
⊡
⊢
⊣
⊥
⊲
⊳
⊶
⊽
⋄
⋅
⋆
⋏
⋘
⋮
⋯
⋱
⌀
⌈
⌊
⌛
⌧
〈
〉
⍺
⎕
⎛
⎜
⎝
⎞
⎟
⎠
⎡
⎢
⎣
⎤
⎥
⎦
⎮
⎯
⎷
⏐
⏟
␣
①
②
③
④
⑤
⑥
⑦
⑧
⑨
⑩
⑪
⑫
⑬
⑭
⑮
⑯
⑰
⑱
⑲
⑳
Ⓡ
ⓒ
⓪
─
│
┌
┐
└
┘
├
┤
┬
┴
┼
═
╫
▀
▂
▃
▄
█
░
▒
▓
■
□
▢
▦
▪
▫
▬
▭
▮
▲
△
▴
▵
▶
▷
▸
▹
►
▻
▼
▽
▾
▿
◀
◁
◂
◃
◄
◆
◉
◊
○
◌
◍
●
◐
◑
◔
◕
◗
◘
◦
◭
◯
◼
☃
★
☆
☐
☑
☒
☛
☝
☞
☨
☯
☰
☵
☹
☺
☼
☾
♀
♂
♠
♡
♢
♣
♥
♦
♩
♯
⚉
⚠
⚥
⚦
⚽
✁
✂
✄
✅
✇
✈
✉
✌
✍
✎
✐
✓
✔
✕
✖
✗
✘
✚
✛
✝
✞
✟
✦
✧
✩
✫
✮
✰
✱
✲
✳
✴
✶
✷
✸
✹
✺
✻
✼
✽
❆
❇
❉
❊
❋
❍
❏
❑
❒
❔
❖
❙
❚
❛
❜
❝
❞
❡
❢
❣
❤
❦
❧
❩
❯
❶
❷
❸
❹
❺
➀
➁
➂
➃
➄
➅
➆
➇
➈
➉
➊
➋
➌
➔
➙
➛
➜
➝
➞
➟
➠
➢
➣
➤
➧
➨
➩
➭
➯
➱
➲
➻
➾
⟡
⟵
⟶
⟹
⧁
⧍
⧜
⧫
⨁
⨉
⩺
⩽
⩾
⫻
⬆
⬇
⬜
⭢
⮞
⸦
⸧
、
。
〈
〉
《
》
〔
〕
〜
う
お
が
く
け
し
た
な
に
ぬ
の
ま
も
や
り
る
わ
エ
ク
ケ
ス
ッ
ニ
プ
メ
ラ
リ
ン
・
㎡
㱡
䀀
一
丁
七
三
上
下
不
与
丕
世
业
丛
东
丢
两
个
中
临
丸
丹
为
主
乃
久
义
之
乌
乏
乐
乔
乘
乙
九
也
乡
书
乱
乳
亂
了
争
事
二
亏
云
五
井
亚
交
亥
亦
亨
享
京
亭
人
仁
今
介
仓
仙
代
令
以
仰
仲
价
任
企
伏
众
会
伟
传
伤
伯
伸
似
但
位
佐
佑
体
何
佗
余
作
佳
使
侄
來
例
依
侠
侮
侯
侵
便
俛
保
俞
信
修
倉
個
倍
候
偏
停
健
偶
傑
備
傳
傷
僕
儿
元
先
光
克
兑
兒
党
入
內
全
兩
八
公
六
共
关
兴
其
具
典
养
兼
冀
内
再
农
冬
冲
况
冷
净
准
凉
凡
出
刀
分
切
划
列
刘
创
初
別
利
别
刮
到
制
刺
剂
則
前
割
劃
劇
劉
劑
力
办
功
加
务
劣
动
助
劫
励
劳
勃
動
務
勝
勞
募
勢
勿
包
匈
化
北
匮
匱
区
医
十
千
升
午
半
华
协
卑
卒
卓
協
单
南
博
卤
卦
卫
印
危
即
卷
卻
卿
历
厉
压
厚
原
厥
去
县
参
參
又
及
双
反
发
叔
取
受
口
古
叩
可
台
史
叶
各
合
同
名
后
吐
吕
君
否
听
启
吳
吴
吾
呆
告
员
周
味
命
和
咒
咨
咳
咽
哀
品
响
哑
哮
唇
唐
唾
商
問
善
喉
喑
喘
喜
單
嗽
嘉
嘔
嘗
噉
噎
器
嚴
四
回
因
园
围
固
国
图
圆
國
圖
土
圣
在
圭
地
场
坐
块
坚
坛
坡
坤
型
垣
培
基
堂
堅
堆
堪
報
堵
塞
塾
境
墓
增
壅
士
壳
壽
复
夏
外
多
夜
夢
大
天
太
夫
失
头
夹
奇
奈
奉
奔
套
女
奴
好
如
妄
姆
姊
始
委
姜
娱
婦
子
孔
孕
字
存
孙
孝
孟
季
学
孩
孫
學
宁
它
守
安
宋
宗
官
定
宜
宝
客
宣
室
宫
宮
家
宾
宿
寄
寒
實
審
寫
寬
寶
寸
对
寺
寻
导
將
專
尊
尋
導
小
少
尖
尚
尫
就
尹
尺
尽
尾
局
层
居
屈
屋
屏
屑
展
山
岐
岗
岩
岭
岳
峰
峻
崩
川
州
巢
工
左
巨
差
己
已
市
布
师
希
帔
帖
帛
帝
带
師
帮
帰
帶
常
干
平
年
并
幹
幻
幼
幽
广
広
庆
床
府
度
庭
康
廚
廬
延
廷
建
开
异
弄
弊
式
引
弘
弟
张
弦
弱
張
強
弹
强
归
当
形
彤
彦
彩
彭
影
往
征
徂
律
後
得
御
復
微
徵
德
心
必
志
忘
快
念
忽
怒
怖
思
急
性
恐
恒
恩
息
恶
悟
患
悴
悶
情
惊
惑
惜
惠
惡
想
愈
意
愛
感
愿
慈
慎
慕
慧
慮
慰
慶
憂
憹
懈
應
懊
懷
懸
戌
戎
成
我
或
战
戟
戲
户
戾
所
扁
手
才
打
扳
扶
扼
承
技
抑
抖
护
抱
抽
担
拍
拔
拘
拜
拨
拳
拿
指
按
挑
挟
振
捏
损
捣
捻
掌
排
探
控
推
揉
提
插
損
摇
摧
摩
擇
操
擦
攒
支
收
改
攻
放
政
故
效
敎
敏
救
教
敝
散
敦
敬
数
整
數
文
斋
斑
斗
料
斤
斬
斯
新
斲
斷
方
施
旃
旅
旋
无
日
旦
旨
早
旭
昌
明
昏
易
昔
星
映
春
昨
是
時
晉
晏
晒
晓
晕
晚
晝
普
景
晰
晴
智
暉
暑
暨
暴
曲
更
書
曹
會
月
有
服
望
朝
期
木
未
本
札
术
朱
朴
机
朽
杂
李
杜
杞
来
杨
杰
東
杲
杼
松
极
构
枕
林
枚
果
枝
枢
枣
枪
枯
枳
架
枸
柏
柔
柴
栀
标
树
栗
校
核
根
格
桂
桃
框
案
桑
梁
梃
梅
梴
棄
棗
森
植
椎
楊
楝
業
極
楼
樂
樊
樓
標
樞
模
横
樸
機
橡
欣
欲
歌
歎
正
此
步
武
歧
歸
死
殊
残
段
母
毒
比
氏
民
气
気
氣
水
氵
永
求
汉
汗
汝
江
池
汤
沈
沉
沌
沙
没
沸
治
泉
法
泛
泡
泣
注
泪
泰
泻
泽
洁
洋
洞
津
洩
洪
洲
活
派
流
济
浙
浚
浦
浮
海
消
涉
涌
涛
润
液
涵
涼
淋
淡
淫
深
淵
混
添
清
済
渊
渚
渠
渡
温
渴
游
渺
湖
湘
湯
湾
湿
源
準
溪
溫
溼
滋
滎
滑
滚
滞
满
滯
漆
漏
演
漢
漲
潜
澀
澄
激
濕
濟
濤
濼
瀉
灣
火
灵
灶
灸
災
灾
炎
炒
炙
炭
炮
点
為
炽
烈
烦
烧
热
焉
無
焦
然
煉
煌
煎
煒
煩
熙
熟
熱
熹
燔
燕
燥
爛
爪
爱
爵
父
爾
片
版
牒
牙
牛
牡
物
特
状
狀
狂
狐
狼
献
猶
獨
獻
玄
玉
王
玮
环
现
珂
珠
現
球
理
琴
瑞
瑭
瓜
甘
甚
生
産
用
甫
田
由
甲
申
电
男
界
畏
留
略
異
當
疏
疑
疒
疗
疝
疠
疡
疫
疬
疮
疰
疳
疸
疹
疼
疽
疾
痃
病
症
痈
痛
痞
痟
痫
痰
痱
痲
痴
痹
痺
痿
瘀
瘕
瘙
瘟
瘫
瘰
瘴
瘾
瘿
療
癌
癍
癖
癘
癢
癥
癫
癬
癲
癳
癸
發
白
百
的
皆
皇
皈
皮
盆
益
盐
盛
盡
目
盲
直
相
省
真
眠
眩
眷
眼
眾
睛
睡
督
瞀
瞻
知
石
研
破
础
硏
碍
碑
碱
磁
礬
示
社
祁
祖
祛
神
祟
祿
禄
禅
福
禮
禹
离
禽
秋
科
积
程
稍
稚
種
稻
穀
積
穴
究
突
窌
窝
窥
窦
竇
站
竜
竞
章
童
端
竹
笈
笑
符
第
等
筋
管
節
範
篇
築
篤
簡
簿
籍
籤
米
类
籼
粉
粒
粗
粳
精
糖
糯
系
紀
紅
納
素
索
紧
紫
累
終
経
絡
統
絶
經
綜
綠
維
綱
網
緊
緣
編
緩
繁
繆
繇
繩
繼
红
纯
纲
纳
线
练
组
细
绍
经
结
络
绝
统
继
维
绵
综
缓
编
缝
缩
缪
罐
网
罔
罡
罪
罽
羅
羊
羌
美
羚
義
羲
羸
翁
翘
翠
翰
翳
翻
翼
老
者
而
耳
耶
耿
聊
联
聖
聚
聞
聾
肃
肉
肌
肘
肝
肠
肢
肤
肩
肯
育
肺
肾
肿
胀
胁
胃
胆
背
胎
胕
胗
胛
胞
胡
胰
胱
胶
胸
能
脂
脅
脈
脉
脊
脏
脑
脚
脛
脱
脸
脾
腋
腎
腑
腕
腠
腧
腫
腮
腰
腳
腸
腹
腺
腾
腿
膀
膈
膏
膚
膜
膝
膳
膻
臀
臟
臣
自
至
臺
與
舌
舍
舒
舘
舢
船
良
色
艾
节
芍
芎
芝
芥
芦
芩
芪
芫
花
芳
苏
苓
若
苦
英
茂
范
茄
茜
茯
茱
茶
荀
草
荔
荘
荣
荤
荨
药
莖
莘
莝
莫
莽
菀
菌
菜
華
萄
萍
萎
营
萧
萬
萸
葉
著
葛
葡
董
葵
蒌
蒲
蒸
蒿
蓮
蔘
蔚
蔻
蕴
薛
薤
薬
藏
藤
藥
藩
蘇
虎
虐
處
虚
虛
虫
蚊
蚕
蛇
蛊
蛎
蛮
蜀
蜂
蜗
蜜
螞
螺
蟅
蟬
蠅
蠣
血
衆
行
術
街
衛
衝
衞
衡
衣
补
表
衰
袁
裂
装
裏
補
襄
西
要
覃
覆
見
規
視
親
覺
觀
观
视
觉
角
解
言
計
記
訣
許
診
証
試
説
誰
調
論
諸
謂
謍
謐
謝
謹
證
識
譯
護
變
计
记
论
设
证
评
诊
试
诚
语
说
诸
诺
调
谐
谢
谭
谷
谿
豆
豇
豈
豉
豚
象
豫
貴
資
賓
賢
賦
質
賴
败
质
贯
贺
赋
赖
赤
起
足
趺
踝
蹄
蹔
躁
身
軍
軾
輒
輕
輪
輸
轉
转
轮
轸
载
辅
辛
辞
辟
辨
辩
辭
農
迅
过
迎
运
近
还
远
违
连
迪
述
迷
退
送
逆
选
逍
透
逐
通
速
連
進
逸
遂
遇
遊
運
過
道
遗
遠
遣
遥
適
遲
遽
避
邁
還
邈
邑
邓
邪
郁
郄
部
郭
都
鄕
酒
酸
醋
醫
醴
释
釋
里
重
野
量
釐
金
釜
針
鉴
鋆
錄
錦
錫
録
鍼
鐵
鑑
鑫
针
钊
钟
钩
钱
铁
铭
铺
锐
错
锡
锦
锭
長
长
門
閉
開
閑
閒
闊
闔
闕
關
门
闪
闭
问
间
闷
闽
阁
队
防
阳
阴
阻
阿
陀
附
陆
陈
降
陟
院
除
险
陰
陳
陵
陶
陷
陸
陽
隐
隙
障
隨
隱
难
雀
雄
集
雙
雜
雞
難
雨
雪
雲
雷
雾
震
霜
露
靈
青
静
靜
非
面
靳
鞠
韓
韩
頃
順
須
頓
頭
顔
願
類
顶
顺
须
顽
预
领
颈
颐
颓
颗
题
颞
風
风
飞
食
飬
飲
養
餘
饮
饶
首
香
馬
馳
驗
马
骨
骭
骯
髂
髎
體
高
鬱
鬼
魂
魄
魅
魚
魯
鮮
鯧
鱼
鲍
鳖
鵝
鸡
鸬
鹊
鹏
鹚
鹤
鹵
鹽
麗
麥
麦
麩
麯
麴
麵
麻
黃
黄
黑
鼎
鼓
鼠
鼻
齊
齋
齒
齘
齿
龙
龟
ꙴ
ꙸ
Ꝋ
꞊
푛
푝
휇
ﬀ
ﬁ
ﬂ
ﬃ
ﬄ
﷓
︁
︎
️
ﺁ
ﺲ
ﻟ
ﻠ
（
）
，
．
：
ﾟ
￪
￬
￮
￼
𝐀
𝐂
𝐄
𝐅
𝐈
𝐊
𝐋
𝐌
𝐍
𝐎
𝐏
𝐑
𝐓
𝐕
𝐚
𝐛
𝐜
𝐞
𝐟
𝐡
𝐢
𝐤
𝐥
𝐦
𝐧
𝐨
𝐩
𝐫
𝐬
𝐭
𝐯
𝐰
𝐱
𝐲
𝐴
𝐵
𝐶
𝐷
𝐸
𝐹
𝐺
𝐻
𝐼
𝐽
𝐾
𝐿
𝑀
𝑁
𝑂
𝑃
𝑄
𝑅
𝑆
𝑇
𝑈
𝑉
𝑊
𝑋
𝑌
𝑍
𝑎
𝑏
𝑐
𝑑
𝑒
𝑓
𝑔
𝑕
𝑖
𝑗
𝑘
𝑙
𝑚
𝑛
𝑜
𝑝
𝑞
𝑟
𝑠
𝑡
𝑢
𝑣
𝑤
𝑥
𝑦
𝑧
𝑨
𝑪
𝑬
𝑭
𝑯
𝑰
𝑱
𝑲
𝑳
𝑵
𝑶
𝑷
𝑹
𝑺
𝑻
𝑼
𝑽
𝑾
𝒁
𝒂
𝒃
𝒄
𝒅
𝒆
𝒇
𝒈
𝒉
𝒊
𝒌
𝒍
𝒎
𝒏
𝒐
𝒑
𝒓
𝒔
𝒕
𝒖
𝒗
𝒘
𝒙
𝒚
𝒛
𝚱
𝛅
𝛌
𝛥
𝛴
𝛼
𝛽
𝛾
𝛿
𝜀
𝜂
𝜃
𝜅
𝜆
𝜇
𝜈
𝜋
𝜌
𝜎
𝜏
𝜑
𝜒
𝜔
𝜖
𝜶
𝜺
𝝆
𝝈
𝟎
𝟏
𝟐
𝟑
𝟒
𝟓
𝟔
𝟕
𝟖
𝟗
🎞
👈
👉
👋
👣
👦
👧
👨
👩
💅
💇
💡
🕕
🖥
😀
😉
😐
😘
🙏
🤫
🥼
🧪
🩺
##o
##l
##y
##c
##i
##s
##a
##e
##n
##b
##h
##ö
##t
##m
##u
##r
##p
##v
##k
##d
##g
##f
##ä
##w
##z
##B
##A
##x
##S
##R
##P
##1
##F
##0
##3
##4
##2
##9
##ü
##5
##V
##I
##6
##8
##7
##G
##D
##̈
##ß
##C
##K
##×
##T
##N
##™
##M
##®
##j
##±
##↑
##U
##q
##Z
##E
##H
##O
##L
##ӑ
##é
##X
##≥
##ˆ
##Â
##´
##©
##ÿ
##Q
##ô
##W
##J
##γ
##Y
##̶
##°
##−
##ν
##ώ
##σ
##ι
##ς
##μ
##¨
##Ü
##µ
##Ö
##→
##Ä
##á
##͸
##̂
##β
##ʼ
##º
##ō
##↓
##𝑜
##𝑙
##𝑢
##𝑚
##𝑒
##𝑛
##𝑃
##𝑠
##𝑡
##ℎ
##𝑟
##𝑎
##𝑝
##𝑖
##𝑐
##ø
##³
##è
##à
##ó
##♂
##ē
##í
##ú
##ã
##ì
##リ
##ニ
##ッ
##ク
##𝒍
##𝒕
##𝒆
##𝒓
##č
##ć
##α
##υ
##É
##å
##𝐶
##𝑉
##𝑘
##₁
##₂
##ϑ
##ω
##Å
##¹
##τ
##Θ
##Є
##Ν
##²
##ū
##À
##ò
##ę
##ð
##Þ
##š
##↔
##ª
##≤
##χ
##λ
##ύ
##ο
##Ÿ
##˚
##́
##˗
##κ
##̀
##≙
##ë
##▶
##ρ
##➝
##Á
##𝐻
##𝑁
##𝐼
##ʿ
##୫
##୪
##𝑇
##€
##ε
##¬
##ç
##∡
##ṣ
##♦
##ł
##¯
##ί
##π
##ά
##θ
##æ
##∆
##ᵇ
##̇
##𝑂
##ȕ
##Ã
##¤
##◦
##Œ
##â
##ζ
##∙
##𝑑
##𝜑
##∞
##È
##⁄
##⋅
##س
##ت
##¼
##î
##○
##𝑔
##ή
##и
##ш
##н
##е
##в
##с
##к
##й
##𝑵
##δ
##΄
##˒
##⎯
##𝛼
##¢
##∗
##Н
##𝐺
##ï
##¸
##£
##ý
##Σ
##ı
##ǐ
##𝑏
##т
##о
##∑
##õ
##đ
##ê
##⁰
##ɑ
##̗
##⁻
##⁶
##ğ
##∼
##ξ
##Ç
##≈
##ė
##ñ
##ş
##Ž
##ꙴ
##ﬁ
##♀
##ń
##₃
##≪
##𝜏
##ﬂ
##ӱ
##ϕ
##̓
##Ȗ
##ل
##ؤ
##ا
##Ì
##𝐸
##𝐷
##έ
##ὴ
##˜
##د
##ن
##ي
##ة
##𝐜
##ί
##ȱ
##φ
##ό
##✓
##Δ
##Í
##ś
##ϖ
##─
##┤
##■
##Ψ
##𝑥
##Ò
##ج
##ه
##ك
##│
##ă
##Ω
##●
##Ï
##ǿ
##♥
##❤
##❛
##❧
##✐
##❝
##❡
##Ă
##ƚ
##ŝ
##͞
##ʹ
##ϋ
##ΰ
##ȝ
##𝑓
##η
##②
##♣
##ạ
##Ћ
##⌛
##𝐀
##𝐨
##𝐫
##𝐭
##𝐞
##𝐧
##𝐤
##𝐥
##𝐚
##𝐩
##ě
##𝑦
##ɛ
##л
##у
##𝐹
##𝑧
##⇒
##Ρ
##Μ
##Ο
##Ζ
##Ι
##ː
##Ø
##ψ
##ŭ
##⁺
##∣
##ĳ
##ď
##Ğ
##ů
##Ŷ
##ǁ
##Đ
##Ŭ
##𝐴
##̋
##⇓
##˙
##ὶ
##Ô
##∪
##ź
##¥
##ż
##⁹
##ы
##Φ
##ହ
##଴
##ā
##щ
##☹
##☐
##̄
##✳
##✶
##𝑅
##𝒂
##𝑷
##𝑲
##𝑤
##ࡎ
##а
##⁸
##Ε
##Υ
##ň
##ą
##⇤
##ˈ
##ʃ
##ĩ
##р
##м
##ц
##ч
##г
##̅
##œ
##ž
##︎
##ſ
##ʻ
##ӧ
##Р
##þ
##ᶰ
##ḗ
##х
##ǀ
##𝑣
##𝒐
##𝒔
##𝒊
##𝒗
##ῶ
##♠
##❢
##❞
##✷
##✹
##𝐿
##≠
##ﬀ
##௓
##ீ
##℃
##𝟑
##𝟎
##ù
##˝
##ᵈ
##̃
##𝜆
##𝑈
##𝑀
##А
##ǂ
##𝒃
##𝒖
##𝒎
##𝒏
##Š
##Τ
##Î
##⇑
##≡
##௜
##▼
##÷
##𝑆
##ế
##□
##ἱ
##ő
##م
##ῑ
##√
##▪
##⁴
##б
##ˉ
##ص
##ع
##ூ
##஼
##ோ
##௎
##✸
##ệ
##Α
##С
##ݬ
##𝑋
##͕
##𝐈
##𝐍
##𝟐
##∅
##̔
##◊
##ř
##⎢
##𝐏
##û
##Π
##Κ
##ī
##ر
##ف
##⊥
##⁷
##ﾟ
##Ǉ
##Ŧ
##Ƶ
##Ń
##ϰ
##∂
##Η
##ї
##з
##Ë
##ᾶ
##Ő
##Ĩ
##ƺ
##ƌ
##Ɵ
##Ύ
##Ě
##←
##̧
##ŏ
##ῳ
##￪
##Β
##⃝
##ὰ
##₄
##ὀ
##ଶ
##ش
##خ
##𝟒
##𝟖
##⁵
##↵
##İ
##¦
##ợ
##⏐
##ῦ
##₀
##Ś
##ͬ
##Ɛ
##ே
##ذ
##Ñ
##Ơ
##½
##⩾
##Χ
##Ϳ
##ǌ
##ῷ
##▫
##Ú
##೘
##ೠ
##ೝ
##೔
##೙
##⇈
##˟
##ˇ
##ț
##∩
##я
##ĸ
##Į
##∝
##✉
##❣
##③
##ᵅ
##ό
##ə
##Û
##ب
##ͣ
##𝑬
##Ĺ
##ɪ
##ȹ
##𝐱
##𝐬
##𝐢
##𝐯
##𝐟
##𝐡
##ء
##𝑳
##∏
##п
##њ
##ǔ
##ῆ
##ȏ
##⇧
##ĉ
##୥
##►
##Ⓡ
##൰
##❔
##⇔
##ͷ
##☨
##Æ
##ŵ
##Ƙ
##ţ
##į
##Ʃ
##ὐ
##☞
##ǚ
##و
##ा
##ड
##ि
##᾿
##⟵
##⟶
##෩
##Ɖ
##ଵ
##ь
##𝑗
##͍
##͘
##ȳ
##ễ
##𝟗
##И
##К
##𝛥
##⨁
##◯
##₅
##𝑌
##≅
##ǻ
##д
##𝑊
##✴
##أ
##∶
##█
##ọ
##ʳ
##ķ
##𝒄
##𝒉
##ĕ
##𝟏
##ƍ
##ز
##𝟓
##⊢
##₸
##▲
##ả
##О
##Ī
##̊
##𝒈
##𝒌
##ً
##⊕
##೓
##ೌ
##ⁿ
##⅓
##೜
##ು
##಴
##ೃ
##Ƃ
##Γ
##️
##ĺ
##∕
##Ó
##✅
##͵
##❜
##ـ
##👩
##👦
##👨
##👧
##𝒙
##𝒑
##𝒇
##ɣ
##̲
##∈
##▴
##⩺
##𝜖
##ŷ
##ϳ
##ϵ
##ḱ
##𝐵
##𝐾
##ĭ
##✽
##ǎ
##ῖ
##⇐
##˘
##❦
##Ͷ
##が
##𝒛
##ɤ
##ἴ
##▄
##ₒ
##ି
##௱
##ὸ
##ƒ
##ǒ
##ũ
##Ξ
##⊚
##ё
##௧
##ʁ
##♯
##ꙸ
##̴
##௘
##௚
##௨
##௡
##ӳ
##є
##￬
##ṓ
##ح
##𝜋
##☼
##┐
##௛
##௠
##௔
##ᶠ
##⋆
##̛
##̒
##𝐦
##௥
##௖
##ቁ
##✌
##✎
##்
##ை
##ư
##ờ
##∧
##ϭ
##≔
##ф
##𝑕
##ܤ
##⃗
##ሻ
##ೋ
##ಸ
##ಹ
##಼
##𝐋
##𝐕
##𝐎
##𝐓
##¾
##া
##য়
##𝑍
##ẵ
##ଽ
##଼
##ௌ
##ெ
##஺
##𝑞
##Ć
##ᾰ
##Ќ
##ɶ
##𝐅
##Λ
##ى
##☺
##͛
##⇢
##❏
##₆
##▵
##Ê
##ﬄ
##ϒ
##⎝
##ௗ
##௢
##௦
##ق
##ͳ
##𝜂
##ˣ
##⊖
##✇
##ֿ
##ϊ
##Ȟ
##ʌ
##⎦
##ŕ
##Ї
##✈
##ط
##ൣ
##⩽
##ș
##ж
##ئ
##Ω
##̌
##ᶜ
##𝑶
##𝑭
##ᾱ
##⃰
##ﬃ
##𝑄
##ȓ
##͌
##ӕ
##░
##⅔
##Ώ
##І
##ᵃ
##┴
##🧪
##Ͳ
##↗
##Л
##ơ
##▸
##ʏ
##ʀ
##お
##け
##る
##ラ
##ン
##ケ
##ₑ
##ּ
##ὑ
##Ù
##➙
##┬
##೚
##೟
##೗
##೐
##൧
##ݐ
##ݏ
##ݎ
##𝑽
##ȟ
##Ф
##Ȉ
##ῲ
##غ
##ث
##ю
##⍺
##ͭ
##₊
##ỳ
##Ϭ
##͖
##𝟕
##▿
##͹
##ἶ
##ỏ
##Ш
##Ϯ
##𝛾
##☆
##☵
##☯
##ḥ
##ス
##฀
##ἰ
##★
##✺
##✔
##⊽
##𝑯
##𝑰
##𝑼
##𝒅
##ű
##ấ
##💡
##∊
##ͺ
##ņ
##↘
##ל
##≦
##୩
##Ȓ
##˃
##ҫ
##٠
##┘
##ὲ
##𝟔
##୙
##୬
##ୢ
##ୣ
##୰
##୭
##ୱ
##ୟ
##˂
##В
##⊝
##𝑨
##≫
##∇
##ⁱ
##ƞ
##➔
##☑
##ὗ
##Т
##𝛽
##ϯ
##М
##Щ
##Ь
##ま
##⇥
##ẹ
##═
##Č
##ௐ
##ϲ
##♢
##ˢ
##∫
##𝜇
##𝑻
##𝐂
##ḉ
##Ý
##⑨
##⇗
##௫
##ష
##൫
##ഀ
##ವ
##శ
##ഁ
##మ
##ť
##ŋ
##ủ
##Ď
##ℓ
##₈
##᾽
##ˋ
##ϱ
##Ƣ
##̥
##ʧ
##✱
##ِ
##П
##ồ
##ṭ
##˖
##ử
##△
##̓
##⎜
##͜
##ộ
##𝒘
##ᵒ
##ா
##✻
##➠
##ิ
##บ
##เ
##ส
##้
##น
##஽
##ା
##ఉ
##⎛
##👉
##ׅ
##プ
##ȅ
##י
##ת
##௟
##﷓
##◌
##ᵥ
##↙
##͂
##▂
##ʦ
##𝒚
##ὁ
##൬
##◉
##೏
##೒
##◀
##ቆ
##ǜ
##や
##も
##ΐ
##し
##┼
##Ӕ
##έ
##▓
##ₐ
##ে
##ব
##র
##্
##ষ
##ি
##ố
##ɸ
##௩
##ʊ
##▾
##ٰ
##⇨
##ἵ
##❚
##Х
##ϐ
##ɔ
##ಿ
##ೄ
##ȃ
##ǧ
##✘
##ẞ
##ɥ
##ؘ
##ඥ
##ఘ
##ᵏ
##ǽ
##స
##భ
##◄
##ἠ
##Д
##ு
##௄
##☃
##Ế
##΅
##і
##ש
##מ
##⎥
##̯
##˛
##∨
##ų
##ἷ
##ʈ
##▬
##₤
##▭
##⟡
##ḵ
##ṯ
##ά
##̉
##ȇ
##⇩
##ٲ
##ర
##Я
##ୀ
##ữ
##en
##er
##ch
##in
##ei
##un
##on
##ti
##ie
##ung
##es
##ra
##nd
##te
##al
##is
##ter
##ten
##ll
##or
##it
der
##ur
##ich
##ar
##ge
##st
und
##ati
##om
##ein
ein
##an
##us
##uf
##gen
in
##as
##ä
##ro
##ik
##de
die
##ier
##ech
##um
##ach
##sch
Be
##el
##ts
##den
##ig
mit
##ation
##der
##isch
##se
##hr
##at
##em
##lich
##ol
20
Kein
##et
##ber
##wei
Ver
##di
##il
##kt
##eich
##tra
##ul
##ph
##uch
von
##eil
##re
bei
##ü
im
##am
des
##ungen
##nter
##tion
##ben
##la
##und
vom
##tell
An
##men
##ut
##ora
In
##icht
##sen
201
##eit
auf
##and
##teil
##ne
##na
er
##og
##op
##ck
##lin
##le
St
rech
##ink
ver
##ir
##ges
##ek
##os
Fra
eine
##ver
Keine
Sch
##ab
den
##ell
kein
einer
##her
##ent
##ö
Die
link
nach
##ikation
##ungs
##fund
zu
Nach
##weis
Er
##tellung
##len
##fer
so
##ls
##ale
##urteil
Ein
##urch
##si
an
##gl
##ran
Befund
ist
Ab
das
rechts
vor
nicht
##ym
##pl
oder
##ot
##ür
links
##ischen
##ru
##ap
##nah
##ger
Unter
##och
Klin
##ed
##such
##ri
##enz
Beurteil
sich
Pati
##hora
##nt
##per
##eg
##bar
Beurteilung
##är
##rei
Klinik
##tigen
##erden
##eits
##ste
##sp
##alen
##me
##he
##ische
Kon
Nachweis
##horax
##end
##ef
##nder
##au
10
##ag
##enten
Ind
##orm
##iert
werden
##rech
##eh
##gleich
##uss
durch
##ieren
##gel
##hal
##ose
Indikation
Pro
##ff
##ind
##ok
##ktur
##ast
##ativ
##ogra
##iegen
##ser
##ds
für
##liche
##nen
zur
keine
aus
kon
Auf
##gt
Inf
##zi
##ann
##olog
Frages
Patienten
##ft
wur
Fragestellung
##tfer
##sion
##ktion
##tfertigen
##ien
##tfertigende
CT
Im
##tisch
##kl
##pp
##est
##herap
Vergleich
##ss
##lle
zum
als
Sp
Rech
##erz
##ograph
##ahr
Re
##ing
##wie
##tiv
mm
##geb
##ial
##AM
auch
##ang
##tel
##ub
##ild
##ät
NAM
NAME
unter
##fä
Thorax
##id
##ert
##gr
Untersuch
ab
sch
12
##keit
##ufnah
##ogen
##eu
##ehr
Ar
dem
bis
ge
##ige
##tig
Rechtfertigende
sowie
##herapie
##th
##ak
##ign
##edi
##lauf
##bl
Vor
##är
##hne
un
11
be
wir
##ase
sind
##ah
re
##be
##qu
##zt
Le
##eiter
##rö
##rä
##ort
##tik
##zin
##ant
ohne
##llig
##röß
##ater
##neum
Bei
##ep
##ektion
##änder
##ierung
Di
Aus
##ont
##xi
##cken
eines
##od
Vora
##nauf
##dem
##dom
##glich
am
##llen
##ymph
##yp
##gelrech
##iltra
ges
##nis
bes
##ittel
##nauffä
##fl
##ese
##ven
##ara
Voraufnah
##no
##eichen
##all
##aren
Dar
##rank
Infiltra
##dseits
intra
##sten
##hen
Lymph
st
##ographie
##ath
19
um
##ura
##ör
wurde
##ob
##mm
##ark
##age
Ber
##̈ber
##pf
wird
Bl
##benen
200
dass
##yste
##roß
##fol
über
##stellung
zwei
##wer
wie
##aler
MR
Met
##bel
cm
##WK
##ür
Ne
##ierte
##ib
##eiten
Ra
Fl
##ühr
##ekt
beidseits
de
##tis
##for
##ion
Stu
einem
##oh
##ess
pro
##lichen
Fraktur
##ität
Untersuchung
##aus
##ellen
Es
Herz
##enk
##liegen
##bes
##schl
et
für
##dien
fr
##wi
groß
Voraufnahmen
Leber
Kn
##if
per
##guss
##ormal
##rä
##zen
##tet
##ppen
ent
##ere
zei
##ör
03
##halt
##plikation
es
##agn
Verlauf
##än
##igen
##ist
##amm
##che
Ebenen
##nik
##ost
Abdom
##alis
ger
##eren
Pneum
Zu
Ch
##noten
Ges
##sti
##lenk
Therapie
frei
##isik
##iz
ca
kann
##igkeit
##inder
##leura
Nieren
Jahr
##gelenk
##gra
##lung
weiter
##forder
15
##oll
Abdomen
##ön
##ischer
##ative
Per
##opf
##mon
##stand
##ment
##lein
Blut
##son
wurden
##res
##pro
##lter
##ierten
Kom
Hin
##oren
##äß
##itt
##onder
##ank
##äsion
##aten
##uß
##WS
##sk
Becken
Pleura
##gan
##ic
einen
13
##asen
01
##knoten
##itä
##zu
##atisch
##klär
##tsp
ex
sp
##hand
##amt
##dr
Son
kom
##uell
05
09
##iel
##schie
##fra
Wir
##iger
##we
Ent
Der
##erung
14
##ern
##entra
De
##ulmon
en
Lymphknoten
kön
Lungen
08
##merz
07
Risik
##pt
##aterial
vorliegen
##rem
06
liegen
unauffä
##amn
##tro
Medi
##äre
##aben
16
02
##etz
Das
##chym
##gebnis
##entr
04
##agen
##größ
Darstellung
Dr
##arenchym
Gef
##unktion
bds
##rie
##unter
ml
202
dar
##othorax
##tz
##usp
18
nur
ber
##fas
all
##ia
Aufklär
##gang
##grenz
Abb
da
Läsion
##ma
mehr
##akt
##alk
##ze
##änderungen
##ide
##zw
Pleuraer
über
##krank
medi
##nung
T2
rechten
##amnese
Inter
30
Durch
Pneumothorax
Ober
Patient
Har
17
##tische
Kopf
Stau
##mittel
##mpf
##ystem
bet
##als
##ante
##gef
##gelrechte
zw
##atz
gl
##sor
##gung
##gesch
##astin
Ge
##ys
normal
##enden
##nahme
##anz
##ate
##lage
hin
soll
##tellt
##kul
Tra
diese
Kontra
##ähr
inter
Infiltrate
##rom
erfol
##tsprech
##oper
Meth
Anhalt
##öglich
vergröß
25
##oph
##üss
##mer
ins
##usion
##scha
##ende
Ex
bzw
##ht
##las
##onst
##äuf
##gte
##abe
##ral
Un
##zel
00
##tert
##ors
MRT
klein
##weit
können
##ens
##ologie
##umforder
##auch
sub
##uspek
di
##sy
##plant
Li
##ond
##sse
Mit
##ationen
Zus
Harn
deut
##allen
Tech
ak
Bes
##isk
unauffällig
##yper
##reich
vorliegend
##tem
##aut
neu
##yse
Ergebnis
linken
##ppe
##ammen
##omogen
##iv
Flüss
sein
##weise
al
##untersuch
##zeichen
T1
##jektion
##ner
Or
##etzt
##ele
##met
##ruktur
##chen
wen
Ap
##arzin
##ahl
##llige
zwischen
##att
##osi
##äm
DD
##elle
##ations
Behand
Bild
##agnos
sie
##ffen
hat
##acht
##ären
##ochen
##lager
##edoch
##bild
##fal
##opath
Technik
Ang
Tum
Bereich
##ulti
##ett
##yl
##arzinom
##tre
Veränderungen
##sich
##die
erh
##ardi
ander
KM
Ph
klin
LWK
Ger
##mal
##ontro
Aufklärung
Se
##gener
Uhr
##willig
bed
Gr
Über
##tige
##zie
##ruck
war
Eine
##wend
dieser
##ktuell
##sych
##rin
21
##halten
Res
##änd
Gallen
##blase
##omie
2014
Einwillig
##entrik
noch
jedoch
hier
24
##ünd
##tischen
Regelrechte
22
##ankre
Material
Ak
##ac
##über
2016
Einwilligung
Frage
##thro
##rim
2017
sign
Neben
2013
##oden
##oid
##hin
Verd
##ikro
Unauffä
##ifik
So
2018
##heit
##licher
2019
2015
beurteil
2012
Stauung
##än
##itis
Oste
##quenz
Anamnese
##veränder
ihr
##terien
##li
bek
pulmon
##wir
##üsse
Zustand
regelrech
Kontrast
##zeit
##oz
Gefäß
Sin
##one
Studien
##rift
##ruppe
##vention
Risiko
##ieß
##arb
##ari
Raumforder
Läsionen
##ken
##elt
post
axi
gerin
##gre
##essen
##athe
Pankre
Schmerz
##satz
##are
bas
##rans
##atheter
##ondere
##ule
##fahr
aber
##grund
##ruktion
mal
##untersuchung
2010
##tive
ar
Mittel
##alt
23
je
##brei
##ontrolle
##yn
##tur
##bung
Applikation
##schn
##oc
##etro
Über
2011
##wert
##arm
zentra
entsprech
##ständ
signifik
Sonographie
##hl
##rü
##erd
Parenchym
##schei
##ox
Mediastin
Hinweis
##ührt
##itze
##fraktur
##drü
Kor
II
##tern
##nach
beurteilbar
etw
Sub
##üft
Um
Untersuchungs
gew
Station
27
empf
##urz
##ichte
##ativen
Mamm
##lappen
##erte
##bens
Kontro
Gel
##nte
ax
##ad
##ologisch
Mon
##unde
##gradi
Zusammen
##itte
##güsse
##umen
##auf
##anc
2020
##aden
Studie
gen
##ptom
##ass
##kler
peri
##unden
##CT
rechtfertigende
##tehen
##los
##schaft
##geh
##bi
##ymptom
Infiltrat
ma
2009
##mus
##sicht
##seh
Alter
Mil
Pankreas
##ute
Krank
##wick
##ün
Pleuraerguss
pneum
##treten
abgrenz
26
su
##lei
28
50
##ine
##änder
##erv
gef
##opathie
##omp
##hrom
mö
VA
##örper
##ression
##ück
##heits
##ität
##ranie
Schild
Projektion
Weiter
Deut
##erten
ne
dors
##odik
##sehbar
Ser
##ären
##ezi
Hals
##schluss
##ock
abgrenzbar
##hlen
Methodik
ausge
oss
Gelenk
Flüssigkeit
zeigt
häuf
##br
Daten
##anten
axial
##falls
Weich
VU
##ferenz
##äre
homogen
Schw
Hir
Tab
Sten
##mun
Teil
##nachweis
##abil
##fä
einsehbar
TS
##del
##ierter
##äß
##bauch
sel
man
Wirbel
##terie
fok
##fig
sollte
haben
lie
##riftliche
##ill
Seg
##änd
OP
##tech
##ilde
##geben
##entrikel
Qu
40
Hand
Patientin
##kalk
##off
##lu
##rach
Neur
##tellen
##fall
##äm
größ
##hron
##aris
Blutung
##ler
Erkrank
##über
##krem
##iere
##besondere
##ologische
##art
Radi
##dick
##ologischen
##im
##zep
##igk
sehr
##igit
Weichteil
##siv
kor
Unauffällige
Zeit
Milz
29
Verlaufsk
##annte
##ätz
Schilddrü
Bek
##kranie
##ard
##uten
##kel
##aufnah
##hy
##tens
##tes
Pf
##nahmen
Mikro
##ode
##eist
En
##elev
min
##inf
path
Hyper
##urg
##lekt
Knie
##gem
##ahmen
##sä
Raumforderung
##itten
##ehand
Sie
##uma
##zei
##halb
##wand
##domin
aktuell
möglich
Voruntersuchung
Al
pneumon
Mediastinum
##ex
##ezif
idem
##äch
##hes
##VK
##örper
##itä
Reg
Arb
Sign
##ehmen
##gliche
##esent
##of
Verlaufskontrolle
##ior
freie
##timm
deutlich
##tiven
##uz
##sel
##ug
##technik
Behandlung
##ov
##kon
##ron
##trag
##izi
para
Spitze
##schein
Ma
##gesamt
##eld
100
beg
gut
Tumor
##ium
##wendung
besch
Jahren
Bas
zus
ap
intrakranie
Men
##tiert
##oral
Erguss
mg
Rahmen
liegt
##yt
##xim
Luf
##isten
Kontrastmittel
##hromb
##rad
Liqu
##atis
##isl
##ohl
##assen
##rain
##nk
##ohlen
##hep
##aum
side
gegen
Zeichen
Ven
seit
End
zun
##stau
##inn
IC
##sz
##weg
##schieden
##osis
##bst
Pat
ind
##min
##adi
erwei
vergrößert
Neu
ange
Sc
##zellen
Ergebnisse
##hem
insbesondere
##esen
##ommen
##ographisch
##zidi
##gebilde
##agnose
31
Gen
ven
##pun
fl
Lok
##osen
Knochen
waren
Hyp
multi
##äng
Ins
##iden
All
##befund
Fä
##vers
weit
##ente
##atus
##terung
##atom
##alität
##ip
##orta
##itäts
##schied
LWS
Diese
Mehr
##net
##anal
later
Chol
##schen
##sam
##cus
Bef
TSE
Frau
empfohlen
##astasen
Ventrikel
wel
##ondyl
##zeich
##radi
##tels
Stra
Kinder
##throse
durchgef
chron
##fahren
##schw
Sequenz
soweit
##rieben
##stör
##auer
suspek
##bed
##atische
Konkrem
##tor
##medi
##mes
malign
dist
ober
Rek
##inkel
##abei
2021
##fiz
or
##zidiv
##öß
Prä
##sung
##mehr
relev
##itu
wenn
##atur
##onstruktion
Dop
glatt
##bildung
##inden
##last
##äch
##ulär
##ibt
Def
gering
erhö
Pl
##ple
Größ
##tim
psych
häufig
##verändert
##ständ
Anal
##teht
##riff
Segment
##orph
gem
Schul
##IR
##schließ
##hebung
aufge
##arkt
##fen
##agnostik
##land
##figur
teil
Symptom
##körper
##minder
##ymmet
##onar
##gradige
hö
Signal
Am
dies
##stra
##val
mittels
##utung
##ow
##ährend
##ichtung
##eitung
HWS
##band
##üll
My
##lungs
##inal
##olgen
##fusion
Magen
##ith
schl
##letz
##prä
##gten
##sorgung
##ruppen
Nr
35
Gl
erg
##enkel
##kung
##ings
verbrei
##hö
regelrecht
##nten
##rel
Jahre
##tigung
##itone
wesent
##messer
Link
##ungszeichen
##zahl
zeigen
Voraufnahme
##inge
Mast
##irurg
##ulation
##ord
Oper
##ünd
Gabe
##flu
sag
RI
##ühr
Mark
##annt
degener
##isches
Pol
##kun
80
##aktion
##suspek
##gewe
untersuch
##ster
##häng
##ender
##pra
##zünd
ech
Pleuraergüsse
Sinus
##ement
axill
Liegen
konfigur
##öse
Anteil
Luft
##tein
Hüft
##blem
retro
##fe
##neh
##plantation
Schmerzen
Da
##pon
Kontrolle
##abor
##prä
Lage
##vor
BWK
##gangs
hoch
bereits
##atten
##besser
##igung
##ales
höher
##öch
##para
##feld
ZVK
##man
##iti
60
##pler
posi
##ehen
verschieden
hö
Sy
extra
reg
##igkeits
Auch
##lagerung
Gallenblase
fach
##ständig
##ndrom
Proz
MP
Hier
##ns
##sis
med
Med
Min
##ration
etwa
Normal
konnte
Liquor
##sei
##ymmetr
##schmerz
##kop
muss
##ierenden
##du
gr
Rekonstruktion
PE
##takt
##ans
front
##iet
##ce
##klerose
##führ
##fluss
Schilddrüsen
##ichts
Struktur
Diagnose
##ereb
li
##säule
Darm
ho
##lose
Lymphaden
prim
##gend
Para
bel
Katheter
##ozi
##lt
##issen
BWS
Besch
##sol
Harnblase
frischen
##herapeu
Dies
##haut
Her
gest
Verdacht
AC
Spondyl
##ssen
##ren
Ul
##neu
Klein
def
Serie
##pression
verbreitert
##diente
##bin
Grund
##bereich
anderen
Fall
##wohl
##tischer
##askul
##igitale
Wand
##gehen
##form
##fü
##amit
##tl
beim
##stell
Lin
##phie
kardi
Bekannte
weitere
##ieder
##kal
of
Arzt
Berlin
sol
Niere
##atischen
37
kontra
##hung
##sichts
allen
##fte
##ehlen
##ums
##parenchym
Kniegelenk
gel
##inde
Lebens
##anter
Hil
prä
##yten
Anwendung
##fizi
##otherapie
##karzinom
##rainage
Man
große
##stör
Gesamt
Gruppe
##teb
schriftliche
Eff
Trans
##gehend
Risiken
Ur
Disk
Lymphadenopathie
##mt
##aufnahme
Grad
##öser
##zogen
##gruppe
wieder
##io
##innen
##gestellt
Erhebung
199
sagitt
##aktoren
##plikations
beiden
##ris
Trauma
ob
##olle
##ärer
Hirn
##SA
##orten
##ct
Funktion
Form
ventra
##kte
##stoff
##ula
Organ
##benfalls
##achen
nativ
Aut
##onie
erweitert
Infektion
behand
##osition
einzel
##struktur
32
##system
hinaus
##barkeit
ch
MPR
##str
führ
##deu
schwer
##bas
##hil
##tiger
Haut
par
zunehmen
##oide
alle
##ysten
mittel
##wege
##hn
Aktiv
##bol
unterschied
arterie
postoper
res
gesch
Oberbauch
Hö
aufgrund
konflu
##oten
trans
Häm
norm
##örm
Angaben
Tes
geringer
zul
##störung
##gefä
##ume
sicher
met
gesamt
##itäts
Prost
kleinen
##grad
##griff
##ierende
##ane
durchgeführt
##bene
##meter
Für
##az
zentrale
##ekte
##lossen
##eite
##eim
##ha
Rechts
erw
##bil
leich
konfiguriert
##punkt
##spalt
##aud
diesem
Sequenzen
##pi
Schulter
##LA
Gefäße
Deutsch
mögliche
Frauen
hil
Pneu
##medizin
##ret
##SG
jewei
Em
geh
##ektiv
mediastin
höher
gesam
Bi
dann
Nasen
disk
##lav
Doppler
Aufnahme
##ritt
##ister
##annten
konst
Mus
##peritone
intrakraniellen
wich
##anamnese
##gefäß
45
000
For
großen
NB
##weisen
Intervention
##wiesen
Not
##organ
##material
Gesund
##plan
##schnitt
Nebenn
##ix
Linie
##enti
signifikant
##ikam
Fem
insgesamt
Übersichts
##uläre
##tigt
Ziel
##förm
Wert
##omen
Zum
##kundi
##zent
Wochen
Soweit
##bef
verein
##amin
##erdings
##gew
##rekt
fachkundi
Fuß
Phase
während
NN
Pra
Kal
gesamtes
Anti
stellt
Durchmesser
super
##ämie
##zip
##ellung
##itor
abdomin
HWK
##beleg
gibt
zuletzt
Au
erfolgte
neur
eingesch
##ierender
malignitäts
##omit
erfolgt
##arf
Übersichtsradi
Arter
##eilen
##ache
ebenfalls
##olumen
klinischen
##uffizi
Norm
frü
VI
##bet
Seiten
möglich
##tebral
Schicht
##teilung
##ahn
Vena
Schä
medizin
##arterien
##ervik
Rü
hyper
lang
##uellen
70
##wirbel
##kalkungen
Aufklärungs
end
Dem
voll
hep
##übersicht
Geb
##phal
Stellung
##ündliche
Mal
##CC
##maß
##rzt
SD
son
##schenkel
##werte
##ome
ICD
drei
##olon
etwas
##fferenz
##gredi
##wicklung
##ick
##ün
Zusammenfas
##ili
Diagnostik
Hinter
Maß
stark
##uter
##gment
letz
Thromb
##iegel
##ronch
DL
Digitale
Geringe
##xis
Typ
##druck
##alisation
weiteren
##achst
##ore
##iefer
LK
Zellen
Mastoid
Veränder
##bri
##deh
pneumonischen
Rund
##pel
damit
gleich
weiterhin
ä
##arite
##setz
basal
##ingt
welche
Hem
was
##orb
##ösen
##gf
##remd
immer
##gemein
kn
Prostat
##utz
##osten
Isch
unser
vgl
Stand
axiale
##plantat
aufgetreten
##oskop
Behandlungs
##trans
##bt
##lau
##ographien
##keiten
Untersuchungstechnik
Tag
##dicke
##urys
##eig
##bul
Ö
##echsel
##CS
##ame
##enn
hyp
Versorgung
##erob
Fremd
maxi
##arte
Resektion
##ynam
Kranken
##ahrschein
##Gy
NNH
typ
Konkrement
Sturz
##gabe
##sst
Anlage
messen
Pfle
##eint
Art
kommt
III
##lagen
##ca
Psych
Verletz
##ften
Band
folgen
Rezidiv
oper
##reg
##ierend
wei
##otop
Trache
##indes
##ksam
##ehl
##lang
thora
##tieren
MS
##funktion
Belast
##sie
Prof
##gerung
Herd
90
##fasst
##ins
Harnstau
Risikoanamnese
##bogen
##werden
Monaten
##lichkeit
Konst
ad
mittl
Asp
nie
mündliche
##sionen
gestellt
besteht
##isierung
Multi
##sonographie
##arthrose
##inger
##erk
Untersuchungen
Person
auß
##alter
Diff
orth
zeigte
Schl
Deutschland
##nden
##DS
aller
Befun
Femur
33
##va
Bein
##grediente
unauffällige
##tigra
Aufklärungsbeleg
Perfusion
mü
Übersichtsradiographien
Analyse
##tensiv
62
##iral
##therapie
alter
Zur
unverändert
##klär
##ablauf
neg
##ysen
##tionen
##linik
36
PET
regelrechte
##zintigra
##oplas
Skel
##rose
##folgen
##kungen
##hä
Tel
Problem
Erkrankung
Status
##gesetzt
vergleich
DLP
##ichtungen
##ator
##AS
ersten
##pen
##veränderungen
periph
Sel
Rundher
Syndrom
we
Mess
##ular
Strahlen
Erkrankungen
##dung
komplikations
entsprechend
##ätzlich
verm
##okation
verw
Degener
Fib
##zus
99
##ativer
Regel
Beckenübersicht
##atik
erhöh
##teile
Schädel
and
34
##zentu
Flüssigkeits
Fett
Schla
##gest
Aufnahmen
selten
##uffizienz
##mitte
TE
Gesch
##iertes
Test
##anger
##omographie
Verfahren
vie
heu
Wachst
Schlei
Schichtdicke
2008
Einzel
lok
Port
##CA
Druck
##spezif
malignitätssuspek
##tifiz
vergrößerten
##trem
Ca
Tesla
offen
Einsatz
Ri
##tin
Aktuell
diagnos
Os
##test
Mastoidzellen
Infarkt
Aorta
RF
Punktion
ihrer
oste
PI
##kten
##reichen
##phase
##istenz
Stauungszeichen
her
tra
erst
Empf
##erer
konnten
eigen
##arité
Ultra
Post
Erwei
##nerhalb
##schmerzen
the
##bei
##gor
##des
Tr
##wertung
Hoch
supra
Links
rechte
##nisse
##iss
##rale
Arbeits
##biologie
sollten
##äßig
cor
Weiterhin
gesamten
##erter
##oste
Klinische
Sinne
Angi
##hanc
entwick
Fach
##zug
System
##stit
##annter
Retro
##baren
##akarzinom
##etts
Hüftgelenk
dabei
Rest
Schleim
beschrieben
regelrechter
Menschen
IV
##usions
##eduz
Nebennieren
##rate
Su
##aryn
##möglich
##führ
oben
klinische
##ivid
##abgebilde
Koll
besser
Höhe
Urs
##ntgen
rel
mGy
Pla
##frei
##änge
intakt
fem
Rei
vermehr
Beweg
##mung
##zeichnung
##räume
ggf
Zusammenh
Metastasen
##achsen
val
##astas
Schriftliche
##uelle
Gesundheits
##zept
##plas
Zell
##äd
##minderung
##yst
##ondern
Ausge
disl
75
Ergüsse
kontur
##fach
Me
##vas
Charité
##osierung
##genommen
##fikation
##tiver
Ä
sowohl
Osteop
##ektomie
##riterien
diesen
Aorten
##ites
##ynt
Gegen
Korrel
##bs
Immun
##kopf
OSG
Path
##üt
##10
Praxis
##uk
##abschn
##soph
##aph
##renz
nachweis
FLA
mittelständig
geringe
sondern
##ud
38
Komplikation
##gewebe
##oli
somit
proxim
##esenter
Stenose
subk
Stör
##max
extrahep
##aktiv
Cholest
Als
kleine
##iell
##iter
ben
knöch
##eisten
##ktomie
Beg
Größe
##skop
##eln
ich
##typ
##bau
##eb
Frakturen
##position
Cholestase
Ischämie
Rand
pulmonal
Du
##ochond
Anzahl
superior
CO
##echan
Str
not
##gewiesen
##seits
distalen
bef
Kre
ossären
##aupt
Chem
kommen
##TX
Ech
##lingen
##elegen
Fällen
Bauch
Bet
symmetr
best
Beidseits
angrenz
erforder
denen
Ep
##lö
Sek
Schleimhaut
pulmonale
##gu
andere
allem
Arbeit
Beschwerden
##zte
frische
##sentsprech
##ozyten
##ruch
erster
führen
gefüll
##prägte
##ialen
##ution
##reger
##yc
##orphologisch
besonder
Ane
CCT
Frei
Asz
fest
##zentra
##atum
Ter
##ssozi
##erkrank
Disl
##beten
selbst
Konkrementnachweis
Aneurys
##zell
##oster
sagittal
demark
geb
Körper
##estruktion
Fluss
Gewe
Differenz
Mikrobiologie
##ensi
Erweiterung
Tagen
Hirnd
##gradigen
##tag
Aszites
##sthes
Kontroll
Eingriff
Erst
Mut
jeweils
Zister
SP
Zun
kurz
innerhalb
Entwicklung
Hirndruck
##ats
##umer
##bruch
##arder
com
##ograf
Perik
bestimm
kontrasti
##isse
##indet
linke
##ure
reduz
Kombin
Dabei
##isph
##hese
entzünd
exter
letzten
##oder
Veränderungen
dorsal
##use
##ku
##unge
48
Unterlappen
Leist
abgebilde
##ranium
Inform
##zünd
stellen
##ralen
##reter
disloz
##kter
größ
##ition
##üf
##ologischer
##beding
cava
nachweisbar
##emp
##traum
Ad
infra
Einfluss
##ystelekt
##ismus
eindeu
##ade
radi
##WI
deren
##urs
##00
##vertebral
Gew
##führung
seiten
Zisternen
##armak
##etes
Des
Bede
##astro
vereinbar
Erreger
##cer
zervik
55
diff
Name
##ezie
##ichtet
##schm
Cor
Unterbauch
##befunde
##angi
##abdomin
ihre
##flä
Regelrech
müssen
##rum
##rechen
##osynt
##plex
RA
##omet
##arderguss
##höhlen
Operation
##itz
Leit
Rücken
##ektive
Lock
##rh
Knoch
##störungen
##erner
eher
##gruppen
64
##ituation
##rol
gegenüber
##orden
Par
##gig
##ritten
##sonde
##ument
daher
Comp
##itzen
##gerech
##wirkungen
##ette
weniger
oberen
##opulmon
heute
##physe
Möglich
Dopplersonographie
oft
##rust
Insgesamt
Bandschei
Krankheits
##kom
##voll
Gering
##ital
schw
Ru
Unauffällig
Bedeutung
untersucht
##ogramm
##wirbelsäule
allerdings
Labor
##NA
finden
SE
Sti
##durch
Medizin
Intra
##gelm
suspekten
##belast
##lä
##aufnahmen
viel
Pun
##utan
Extrem
##scheiden
individ
##timmung
##ive
bisher
Zusammenhang
##reis
##imm
##ulen
95
##edu
##pus
zentral
Kontrastmitte
39
##trags
Liquorräume
##organe
Gallenwege
Prozess
##haus
Lokal
##ons
##rik
Hep
Monate
Spiral
Medikam
##tika
lateral
##obei
##isation
##besch
##gn
##iziert
##rete
Mittell
##neben
##valu
##ange
##operative
Abnahme
Wirbelkörper
vs
##wiegen
##tit
##änger
Bel
##resektion
Abbild
Nativ
Abdomens
##oralis
Ebene
##tw
Nicht
##cm
IM
##atell
begrenz
Spin
##akro
wobei
##kultur
frontal
Gefäß
42
spezif
Orth
konturiert
##ief
##leben
##angen
erbeten
##ücksich
Prim
##ux
Darüber
stehen
Fol
##ategor
hand
erhalten
entsprechenden
fehlen
##gebung
lassen
46
##veränderte
fokalen
65
##okus
Forsch
##ularis
##ec
##stei
Bed
Gruppen
Drainage
Lokalisation
system
Untersuchungsablauf
##mark
Arteria
##bericht
##cc
##heb
##issenschaft
##irkul
Antik
ossäre
##umb
Wachstum
##ps
120
wesentliche
Are
Hy
erreich
##esse
##ichten
##winkel
ehes
Komplikationen
Strukturen
43
##12
prä
Nar
##ller
Sk
Bronch
Sh
##blutung
Winkel
regre
Zeilen
##ätz
führt
Werte
##gie
Tage
Pneumonie
##ong
Leu
le
ra
##nab
##zü
##ogenität
##sonsten
MB
thorak
freier
Na
##irn
##behand
Hämatom
##physem
verwende
Dislokation
##etten
##yk
OPS
##setzung
betont
ehesten
Dün
44
dieses
TEP
erfolgen
##zer
Fälle
Pflege
bekannt
unteren
Schwanger
##verdick
##fris
rand
##alp
ph
##onis
At
degenerative
qu
##ilt
PD
Vorh
##ortal
Ausschluss
##ahrscheinlich
neue
leicht
##idiert
##itäten
fokaler
jug
ventral
Zahn
CC
##sichtlich
##sophag
##stierung
##urzel
##spie
##ubl
Bandscheiben
##belastung
zusammen
Standard
##tex
##seitig
Raumforderungen
##linien
##antw
##tung
##̈bri
##schließend
##spule
##ider
##inale
##nehmen
Entzünd
##bit
mittleren
raumforder
41
Seit
sozi
Kombination
##odell
##iges
anter
orthotop
##richt
##sende
Symptome
##faktoren
##glichen
##omat
##obach
bi
##ander
##lex
Abbildung
verschiedenen
bestehen
Fam
Dat
Angiographie
##opsie
##ritor
##bare
auslauf
Perikarderguss
SA
Tran
Haus
##utert
##fang
##ision
neuen
Tub
akt
##ene
Schwer
Was
##tiell
Ile
##abl
Mamma
na
venöser
Minder
##änderung
##ämie
Malign
##iat
PA
##atienten
##ränk
Traumafolgen
Rekonstruktionen
pl
höhergradigen
##appen
##alten
Lenden
Tro
FLAIR
##hancement
Zysten
##indung
dara
teils
Schilddrüse
##ungsver
zeit
##lust
##heiten
intraabdomin
##iale
##spiel
##lagerungen
Liter
verbesser
##qualität
Volumen
Kardi
Erw
Subst
##linie
zeigten
##PD
op
##schiede
Hinweise
Groß
verb
Är
ionis
Fr
deform
Gut
meist
therapeu
##läsion
akuten
unkl
##sender
##tinu
AD
##otte
##weich
##leitung
52
Wirbelsäule
Keim
##oti
##breite
##schwellung
##ke
impon
neben
##üftet
##indestens
Implantation
##ias
##äl
Vari
Selbst
##fän
##besserung
##hängig
##set
Op
Wieder
##metastasen
erschein
##rau
mitabgebilde
##fänger
belüftet
##pfänger
##abetes
##risik
ionisierender
pathologisch
##insuffizienz
##ve
47
##stu
##gien
Nasenneben
Rundherde
##aktor
##stein
##igkeiten
##ärer
##zuf
beobach
apik
##fäh
##fell
##ckt
Magensonde
##vol
Rolle
Ach
Atem
Reaktion
fort
##arzt
##KS
##iration
Marklager
Ste
interna
##saum
##intens
CD
Maßnahmen
bekannten
Belüft
fra
##homogen
##eter
relevante
##BE
##odi
Anfer
Destruktion
Brust
##venöse
sog
##enter
Prä
Prostata
##adium
fachkundigen
gelegen
Stern
SWK
sei
klinisch
Rippen
Män
##ütz
einzelnen
Klas
Spiegel
##CL
Unterschenkel
##duktion
##zeigt
##akte
defin
##hemisph
Ganz
##arer
##ographische
##ifest
MBq
Eingangs
##von
##analyse
Nier
deformans
Ster
schon
funktion
Befundbericht
proximalen
##SS
##segment
Basale
VCS
##lech
pulmonalen
Haupt
mesenter
mindestens
##ierungs
##cher
erken
##dempfänger
##datum
Thy
##ränk
Befundempfänger
Effekt
Schultergelenk
Lunge
pathologischen
##solid
Übergang
Absz
maxill
Anfertigung
##atin
##ithel
##arynx
blei
Ob
Verhalten
##anden
##wechsel
##katheter
Hirndruckzeichen
validiert
##untersuchungen
##stieg
##ivers
signifikante
Kindern
ter
Unverändert
also
Literatur
##zintigraphie
##ancre
Native
mehrere
hist
##ächst
nachgewiesen
##hö
Lungenabschn
Verdichtungen
##eiden
Wie
Rö
Sich
##tic
##linikum
##these
Nasennebenhöhlen
Image
könnte
##ielt
##reicherung
##ile
##ax
Spinalk
worden
##mit
##ierungen
##irurgie
betro
Kopfes
ingu
Urin
assozi
Augen
betroffen
hatten
Kategor
##enkonst
Sep
##sthesie
##RT
Dek
erhö
##für
##audal
Karzinom
Dystelekt
Axi
##osklerose
##werch
Eingangsdatum
Lendenwirbelsäule
##ateral
FS
Tib
##loser
##auftrag
Zwerch
Ju
Degenerative
Orbit
DWI
##ission
##HC
##tum
##usst
ng
##inter
##infektion
##ständiger
besonders
##olus
##ektiven
##stenose
##schlingen
##lia
##otomie
Diabetes
Resistenz
Einsch
Muskel
CA
##gredient
##reck
Handgelenk
##prot
Faktoren
Nierenz
##11
##TE
##opro
vorliegenden
Lä
kompl
relevanten
konfluierenden
##züglich
##reif
Kap
##enpro
##sorge
##öl
sek
##orn
##gangen
Infekt
transvers
Funktions
##osa
Zwerchfell
Kontrastierung
##messen
##phy
Leuk
Ureter
Mammakarzinom
##mals
niedr
beton
temp
eingesetzt
berand
##hritis
Belastung
schlech
zurück
abge
Methode
##fernung
##strahl
Häuf
##rauch
##arten
##blei
Th
beider
Lungengefäß
struktur
lä
##IP
##ös
##ranul
49
mehreren
##atte
##itäten
##drainage
##tinuier
##bein
Patientinnen
Poly
chirurg
Stehen
##erven
##öse
Krankenhaus
aktuellen
##bezogen
##embol
Frakturnachweis
##aticus
Tumoren
Univers
##otis
Methoden
TIR
Unterschiede
inn
Zyste
##liches
##hält
Lang
##komp
##reten
perfund
##ason
Tabelle
Align
subc
##ulin
digit
positiv
##arakter
kg
##legt
anti
##edig
erhöht
Verletzung
030
dazu
fokale
##rztin
ana
findet
statt
##ult
53
Nu
Konstante
##basis
Fort
Humer
##gs
AF
##ünf
Score
konvention
##TA
Leben
##eduktion
einge
##tikul
Them
Diskus
##anzen
Basis
##dienter
Chemotherapie
##var
##tigkeit
Insp
##iterfas
Auftrags
Stenosen
##irm
hohe
suspekter
##sophagus
##dauer
ilia
äuß
##ediglich
##ahme
51
max
##def
gilt
##hol
##ieber
Erg
##ack
Erfahr
##astase
##undes
56
lässt
Verkalkungen
nun
durchmessen
54
##inalen
Por
Weitere
##stellen
##essung
kran
Folgen
##üss
Autoren
Dep
vora
##äter
##sifikation
##verkalkungen
##atio
Ausgeprägte
zereb
Kontrastmittela
##ina
##odul
vorhand
TIRM
höhergradige
Nerven
station
schlank
Dys
konstant
##atitis
körper
##pe
Myel
Mammographie
##ösen
dif
Aufh
nahe
##prü
Zw
wichtig
flor
gefüllt
##astom
br
Kosten
##kontrolle
##dern
Mittellin
##geschlossen
behandelt
lag
knöcher
##noe
retroperitone
Personen
##tentor
seitengleich
##gestell
Enhancement
Häm
Humerus
Bewegungs
##merkung
meisten
weitgehend
##folge
##ksamkeit
##gungs
femoralis
Myok
##zentr
Kriterien
##änge
##leck
as
##ram
T2w
##uber
##ndarm
siehe
198
Lungengefäßzeichnung
##ähl
##abilit
##kor
Blutkultur
gute
##enie
##alie
wegen
73
Folge
##out
Auss
Elekt
##stär
behandel
hinsichtlich
Co
Diffusions
##ät
iden
intrakranielle
entlang
##operativ
akzentu
##Klinikum
kontrastiert
degenerativen
Aufgrund
Beide
kl
##versorgung
##ßen
##infarkt
##hib
##wendig
Ern
Fragen
##schmäl
##ephal
##Labor
##vist
##blick
dargestellt
##ormon
##sive
fläch
Vir
##greich
sekund
##ECT
##telle
Verwendung
akute
##geschritten
3D
Auswertung
##spro
Frü
ster
Ärztin
seitlich
Verbesserung
##yel
intraven
##gegen
##ufen
##iasis
for
malignitätssuspekten
Rück
rechter
Rekt
##ortader
##raft
raumfordernden
##igne
Zeitpunkt
Oberlappen
##venen
##Er
Rö
Geh
mikro
liegend
##ovaskul
Pfortader
##eller
##abilität
##wiegend
uns
Rückenlage
komplikationsloser
Radius
##dehnung
##spar
erreicht
altersentsprech
Reh
##rug
##eitet
##oben
Artik
##antwort
Ellen
57
##ießen
##Unter
Schn
##viden
verl
Reduktion
Zudem
Dosis
axillär
##requenz
##asch
##Fall
tro
fachkundige
##schaften
Alters
Verb
em
##erweise
Computert
##tions
##hemisphären
Wirkung
##zeitig
außen
Ko
tä
##Untersuch
Zwei
DHC
72
##ichtete
Echogenität
##öff
erne
58
ermöglich
##ker
##reichend
anal
59
##auen
mäßig
Von
##ni
Famil
##bio
commun
##rauben
##flä
##fil
##okranium
##rest
##riebenen
SPECT
Vorhof
gemessen
Geschlech
hinter
##isiert
Wei
relativ
##til
##IB
##uration
angegeben
##oth
##obacht
Anastom
Stunden
gek
##inten
jähr
Minuten
##istel
signifikanten
echo
##hle
##reen
Vergleiche
mö
##benso
LA
Vorgehen
Wund
##schließlich
##ae
Neph
##osynthese
erweiter
##hinder
gezeigt
Kontakt
zys
lateralen
Injektion
##ietal
##ellschaft
regelm
Ultravist
auftreten
##atri
##tierten
Intensiv
##störung
##äßige
Schritt
Dichte
ambul
Eigen
Verfü
ep
handelt
Unterfeld
##zeichnet
initi
NBKS
darauf
Defekt
ED
einsehbaren
Ellenbogen
##verletz
pra
Seh
##atal
davon
teilweise
entsprechende
##seku
##dis
Drü
Knoten
Sonographisch
##schirm
verz
##gres
negativ
Auß
Lux
##muster
##pol
##koh
Jugend
Hern
370
hohen
##parameter
Gewebe
Gebur
##erungen
pancre
sod
##nie
##urop
notwendig
NTX
##verlagerung
Fieber
Sensi
Po
##öße
63
Zusammenfassung
Dekomp
Herdbefunde
##ogene
Kolon
##diagnostik
Stadium
ossärer
Neurokranium
##einander
car
##AG
##ober
##egalie
##plen
Skeletts
kontro
Ursache
##Ergebnis
625
chronischen
##ite
##befundung
Bildschirm
perfundiert
##ance
##dro
vorhanden
Befunde
##alz
##uren
aerob
Ödem
##heum
Fokus
##rosis
##hrombose
deutliche
84
##daten
Unveränderte
Diskussion
Knöch
sodass
##änomen
##säulen
kardiopulmon
##mente
350
##gefäße
Ret
Destruktionen
##rig
##imal
eingeb
Vmax
ME
Knochend
cereb
Dens
aut
Ac
spezie
anatom
##verlauf
##par
Kategorie
Störungen
Abszess
unab
anhand
##zieh
Nierentrans
##ez
Fremdmaterial
vergrößerter
##Geb
##onare
Entschei
Stamm
Zusammenfassende
einliegen
Komment
##fts
Metastas
erhöh
Evalu
##ysp
##romin
dire
Platten
##äl
##Untersuchungs
beein
67
##ialis
##ml
##ctus
maxillaris
Kiefer
Drüsen
##störungen
##figuration
##ziden
entsp
##ysi
Morb
Wirbelsäulen
##raum
##uspekt
Länge
medizinisch
poster
zunächst
Mehrere
##ätzlich
##Untersuchungsauftrag
Bestimmung
##iertem
##unt
pancreaticus
##tierte
##behandlung
##lungen
Osteochond
66
96
basalen
##blut
Lungenabschnitten
Homogen
##IS
Beginn
Verschluss
AM
##utzen
2007
##nde
##klärung
##itus
##tragen
##räch
##förmiger
##spiels
Anmerkung
hatte
Allgemein
68
##hnen
verminder
Qual
erfasst
allgemein
Kurz
Zahl
Je
Antikörper
##geboren
Skelett
kortik
##̈brigen
morphologisch
##rangig
##artef
Bildschirmbefundung
erforderlich
Bak
Makro
Wandverdick
Grenz
untersuchten
viele
##arterie
Ovar
wahrscheinlich
jetzt
##kn
##ull
Kompression
allein
berücksich
Ärzte
stei
Auftreten
##ehlungen
##kont
unterschiedlichen
Hilus
##efon
PC
maxim
zentralen
##iation
kam
##dip
Kleine
##olek
Spinalkanal
Kommentar
bil
Fal
##gter
folgenden
Dauer
keinen
##osit
Kind
Schenkel
Beispiel
Stress
##ös
Referenz
##ote
##tiz
Versor
Entfernung
##okument
##gangl
##llel
ähn
##nkt
##gende
bekannter
##ical
Drittel
##ammer
##führung
verschiedene
##20
eff
Defin
##endes
Sig
##acher
Erb
##KG
##jahr
##gefüll
Tubus
invas
Belüftungs
Skler
hypoden
##spielsweise
zusätzlich
wenig
##spitze
Beruf
unserer
Mittellinien
anaerob
verwendet
Expression
schne
außer
Perfusions
##gnose
statis
##fern
random
Ansp
Unterschied
##stamm
Arthrose
##ektoral
##oche
häufiger
##genden
##lob
Parameter
dislozierte
##lo
##verd
Seite
We
Zentr
seiner
##rienti
##gramm
##opharmak
RADS
##ierendes
kleiner
##örder
lediglich
Aden
Ernähr
##av
##förmige
Nebenwirkungen
Dünndarm
Materialbruch
61
##aging
##trophie
##GF
Kontrastmittelgabe
##yspnoe
Lip
koronar
##uliert
001
##verfahren
##phyla
MRA
entfer
Konsolid
gener
Regre
Ansonsten
ren
CR
97
85
##ologen
mitabgebildeten
Narben
Ima
anges
##hilfe
##frakturen
Ref
Gastro
Finger
Verschl
Proband
Beurteilbarkeit
##ica
geeig
Korrelation
ergibt
Vorder
##sä
gehör
##arbeit
erheb
Bundes
Stim
##VI
##antit
empfehlen
Zei
##phas
##det
##kohol
erfolgreich
##gerechte
tief
Plas
Hintergrund
innen
Erfol
##rand
##volumen
Überle
Interhemisphären
Computertomographie
##path
Beteil
Retroperitone
Dieser
##IBI
Sicher
intervertebral
später
demarkierten
##verlust
Deck
##ovist
69
##kre
99m
größerer
sinn
##ografie
##fähigkeit
mediastinal
##cess
##hä
beeinfl
Interhemisphärenspalt
##ores
Car
Tri
länger
narb
##TP
##becken
##ental
communis
##ziehung
SS
##our
inhomogen
##iatr
SU
##ohr
Tod
##GR
moder
pulmonalvenöse
##rektur
vier
betrug
##atischer
Situation
at
##tungs
Regelrechtes
anderer
Ruhe
Mammason
Begl
##omer
partiell
##tierung
Direkt
Mas
steht
##rogen
Plan
messend
##rigen
Während
##otor
##deck
##osp
Gesichts
Fistel
zunehmend
2006
subkutan
##skel
##yph
##oliose
##ou
postoperativ
##oskopie
malignom
Prozesses
##asp
fol
unmittel
##uen
Plaqu
intervertebralis
##videnz
Speich
##erungs
Elter
Röntgen
##ringen
##lass
wissenschaft
ausreichend
Cox
Nierenbecken
Ausdehnung
arteriellen
##kehr
##bleiben
##reaktion
zusätz
##bedingungen
##üssen
Verdichtung
##roph
##ers
Leberz
##plasie
Konzentra
##haft
##ätzung
##reislauf
größeren
Ganzkörper
##ße
Möglichkeit
früh
VII
Fix
Multiple
##ichteten
##kalkung
##usten
##13
##insender
intrahep
##peri
##ulus
weiterer
Eltern
##ganglien
##erkrankungen
bekannte
##under
##zirkul
Versorgungs
ausgeprä
##einträch
Beckens
##18
ents
mediastinale
Schlaf
##ilep
scheint
Konkremente
##akten
ICB
##region
Cli
##ches
Vgl
Pneumothoraxnachweis
Impf
Stoff
##ktions
##abel
##siven
Bezug
Lockerung
Reiz
Oberschenkel
PICC
Erwachsen
##tisches
##läsionen
rund
##ränkte
##osph
##streck
frischer
##CE
Deutliche
beispielsweise
He
Trachea
Rev
##alem
##gradiger
##entlich
mon
Mittelständiger
##eicht
occ
##hlung
abgebildeten
pol
Chron
##ventrikel
Informationen
##klid
Dekompens
Fil
##nehmer
##igt
Anstieg
Luxation
##bek
##lie
##messung
##omegalie
##ütz
##bedingt
bedingt
IL
Prognose
##aft
differenz
##so
umsch
maximal
untere
##wertet
##beg
fib
Aktivität
##hält
##hals
##stitution
76
bestä
geschlossen
##gradig
Verfügung
##risiko
74
Vis
##gaben
##lind
##ulmonal
##valenz
Wenn
Feh
##emb
##mantel
##llt
Wirk
##orpel
immun
Hypot
vollständ
##einsam
Fx
Entzünd
Lebensqualität
##MA
geht
Sicht
##vex
Colon
##NT
Fac
Protein
##spezifische
Seitenventrikel
chronische
##fr
##trä
älter
##fällig
Imp
Unterk
##zess
Peri
##fälle
disku
FD
Alle
##troffen
##arem
##okumentation
##aps
##sön
durchschnitt
bezüglich
Saum
Modell
Symptomatik
Granul
##fläche
Mittellinienverlagerung
Fettgewe
wür
Rehabilit
Ventrikelsystem
##agement
##fel
Patell
##ahlen
Liquora
##bildungen
##lavia
##ofora
##ust
aktiv
##rag
Elektro
##ücken
Genese
Weite
identifiz
##rinzip
Schleimhautschwellung
##platten
zwar
##schall
kontroll
medial
##rezidiv
Unauffälliger
Lappen
art
COPD
Hypert
##35
##fora
Wirksamkeit
iliaca
Ende
##verhalten
Ösophagus
Dyspnoe
##blasen
Extremität
ausgeprä
##raler
Stent
Prot
##alc
##stütz
##onstration
vorder
##leiten
zudem
##strukturen
Bitte
##klärung
##wurzel
Wesent
Infektionen
##heil
Lei
La
suspekte
Anteile
##up
##hren
Diskrete
erscheint
##zusch
trotz
##ester
##ächlich
inf
##racht
##nation
Kont
seine
Bis
jugularis
##illin
##räf
##ätze
##äßig
##phänomen
miterfas
Arch
##thm
durchmessend
betonte
##arthro
As
##drüsen
Radiopharmak
Symmetr
##UR
Betroffen
##oxi
Versch
##okumen
##pplikation
##tivität
dorsalen
bie
82
Glu
Infark
ret
##utane
##eth
##serv
einzelne
paraa
##mat
##ollen
Darmschlingen
Durchführung
entscheiden
##ohn
mas
direkt
##reening
##zidenz
Hist
##elche
##ordnung
Weichteilmantel
TSH
phy
##liak
##klus
zunehmende
Schädelbasis
##ay
erhöhte
Gem
Kontrastmittelapplikation
##vergleich
##ünsch
##izer
##thy
##onen
##hängigkeit
Hinterk
##geführt
komplikationslose
coronar
##zeu
##keits
##ellungen
Arteri
##gredienz
##dient
##mann
konstante
Lymphom
occip
Rektum
##pan
jeweil
##restrik
tum
Kar
78
physi
TA
Zyt
##diagnose
##ain
Infiltration
##LT
Top
##med
##ultur
situ
AP
Aneurysma
ul
verbunden
##anteil
Nuklid
Mediastinal
Wahl
pneumonisches
##tsystem
##atisiert
##abol
Zentra
Liquorzirkul
Tc
Weit
Hypoph
Metastasierung
Schluss
beide
##mas
2005
71
Allerdings
anterior
##sil
##vel
##öpf
int
subclavia
Etw
Schlagan
##IC
älter
low
SUV
poten
kontinuier
##tt
Shunt
progrediente
##aran
##30
sonst
##prim
periphere
##thes
Dis
häufigsten
unauffälliges
##läuf
##körper
Depression
vergrößerte
Klassifikation
##raten
inguinal
77
Frageb
geringen
minimal
Therap
##MI
##teu
infer
##troph
sollen
Röntgen
Probanden
normaler
##50
ihren
Dystelektasen
##ycin
Evaluation
konseku
sonographisch
Region
Stabil
##orose
beginnen
Instit
##echn
Erken
Luftein
##utis
Ich
##ielen
Vorliegen
floriden
##ielten
Leitlinien
Ander
##strom
Lauen
##belüft
##ozyt
Kl
##NS
stär
sagittale
Lauenstein
##iae
entwickelt
##ikament
##ziplin
##embolie
erhöhten
Liquorzirkulations
##stherapie
##seud
Raum
##ortalität
Nachsorge
Infiltraten
stand
##ück
##rung
##hri
##ity
erfas
Bil
##orte
##werten
intravenöser
ärzt
Orthop
##gewicht
Appen
hilär
##skopie
##tentoriell
Verm
##irrh
beobachtet
##gän
Nierentransplantat
##iew
##indest
Beteiligung
##formation
primär
versor
##idität
##rechung
berandet
##ulären
##gress
darstell
##macher
Hilfe
Dot
entfernt
##echs
Bildgebung
Oberbauchorgane
##flächen
##gesetz
Herr
Mitarb
Einleitung
##amnes
##patienten
##isierten
Cholez
##erkrankung
Früh
Empfeh
Mel
Risikofaktoren
Basal
schrift
Vas
Adip
Medikation
##tie
postoperativen
##ifestation
##burg
ausgeschlossen
##rolog
##ophyt
Neurokraniums
Woche
medialen
Befundung
##völ
##ürz
81
Skelettsystem
Alkohol
Mammasonographie
##riebene
##fle
chronisch
Mutter
##gebiet
Rel
##umab
##onnen
Embol
Vit
dokumen
atyp
Empfehlungen
Ductus
##nei
##status
79
Diffusionsrestrik
Myokard
##cessus
##tation
##uv
Osteoporose
Minderbelüft
Differenzierung
##strich
auslaufender
##wertig
Serum
komplex
vielen
Schrauben
get
Natives
Mund
äußeren
CVK
derzeit
erste
bleibt
##berg
Befunder
Männer
Netz
Metastase
Axiale
##ww
##betont
pulmonaler
Cl
US
Ig
##ogni
Randwinkel
##ständige
weisen
www
habe
basale
intensiv
Fehl
breit
linker
höhere
PS
##sth
einmal
Blutdruck
##azit
Tre
##alisierung
Loc
##ossen
##hirn
extrahepatischen
entspricht
Besondere
##ET
Osteol
stabil
Bekannter
Position
Durchführung
Ursachen
verfü
Voll
tran
##oms
sinnvoll
axilläre
dorsaler
196
##schrei
Tracer
Kolle
##otische
##ähr
Skoliose
##amen
Beobacht
##fung
veränder
Liquorauf
##eiger
Ta
unmittelbar
##perfusion
##aphrag
##ositas
83
##tlich
##enre
##Einsender
##anteile
##inen
##lux
##40
begl
##okardi
bolus
Int
##andib
Parenchymsaum
##ire
Uter
2004
medikament
##obil
Xene
Lungenarterien
Fazit
Inzidenz
fortgeschritten
Einen
##uft
##RS
##tix
##reiche
Stich
##quenzen
Schwellung
Zeitraum
##speich
gene
##kommen
BI
Wandverdickung
197
##ysteme
Pul
Wasser
##ipp
großer
Radio
Einnahme
Biopsie
multiplen
positiven
fal
Befundänderung
nahezu
Prävalenz
Angst
Wesentlichen
##zende
postoperative
##arch
##üfte
niedrig
Freie
axillären
##intest
apikal
positive
Schwangerschaft
Verband
##RE
kaum
Antibio
Liquorzirkulationsstörung
Zunahme
Xenetix
##obas
##fassung
##rache
##gänge
ADC
Koronar
jeder
mögliche
VIBE
##bo
##person
Punkt
Verletzungen
minim
Ag
##JI
##ventrik
Effekte
wäre
ganz
##ritorial
##gelenks
sogar
ergän
##HO
##atoren
##zeptor
Kortik
##gehö
ermittel
##meth
multiple
dynam
##haltung
##lag
##ühren
##mehrung
flau
machen
##rox
Quad
fast
##drü
##faktor
Voruntersuchungen
aufgetretene
Mill
Versuch
##trauma
##male
Pil
##einen
Organe
Neue
Bew
Gad
Schichtung
88
ergab
Definition
##stabil
Kindes
Ultraschall
Rück
##okoll
##zeilen
eigenen
##immt
inneren
Leistungs
abgebildet
##issektion
Knochenstruktur
##teten
Dotarem
größenkonst
Lokalan
##ismen
FDG
##TS
Kollegen
##cal
beding
Merk
Qualitäts
Mittelstrahl
##tikel
Deutlich
VJI
##uläre
The
##asche
##gredienter
##diagnos
##juv
##ochem
Lungenparenchym
ersch
##NO
Portsystem
##itts
Messung
##anlage
Ereig
##oma
ebenso
Thoraxdrainage
##embran
Mehrzeilen
Ass
UL
pektoral
##ithiasis
##cenden
glob
Substanz
Uterus
fam
##act
wichtige
##blas
arthri
Bakterien
einher
##rieden
to
##äh
##ptur
##egt
primär
##odynam
##iskatheter
zahl
Flüssigkeitsein
denn
Sul
Liquoraufstau
genau
gemeinsam
##zial
Fer
normale
Termin
optim
86
angrenzend
Sigma
##ukle
Anforder
Gang
##gebenen
##echterung
##ierbar
##altung
Ero
Gesellschaft
Verein
##leuse
Zwischen
HI
##alli
Kalotte
weil
##cendens
bedeu
##kulatur
Einzelne
Screening
wesentlich
ach
Läsionen
##orien
##tiges
##rator
parenchym
##tete
##trach
Te
gro
##mension
Langzeit
Ileus
USA
Epi
##ystol
Splen
Gelenkspalt
##ästhesie
##isthes
Index
kri
##kar
##pflich
##veränder
##ximal
Auto
##isthesis
einige
##apar
verurs
##hältnis
Ihr
##ärzt
Wechsel
Artikulation
##elv
Appendi
Mortalität
EKG
##amp
##CP
Jug
Betrach
##ühl
Parallel
Ansatz
##eitig
Arm
##tegra
HT
begrenzt
Komplikations
umfas
##emphysem
vollständig
##bungen
##xe
Anastomose
Lufteinschl
früher
Befunderstellung
venösen
##heumat
verbleiben
##nek
##ioren
Block
Arthro
kur
Doppel
CI
##lum
Trun
Kreislauf
##AP
##äus
Evidenz
größenpro
##gelassen
Territorial
Knöcherner
##artige
tri
prosp
Stuhl
extrahepatische
transversal
89
Lig
assoziiert
dose
Schenkelhals
##hyre
300
bild
Dist
ACI
verglichen
##erguss
##stellt
Gegensatz
Ausbildung
Saumbreite
Neurofora
Gy
400
87
Ate
Operations
TD
##nov
##defekt
Tibia
Publ
Diagnos
##ichtig
##sus
##sparenz
##hernie
etabl
konfluierendes
Kalk
##otyp
hyperinten
##ekten
sep
Palp
2003
##jod
AV
via
##epithel
##fter
Entnahme
##artner
##achse
##lä
Hierbei
Medikamente
Alignement
##thesen
Altern
Osteopenie
homogenem
##dik
##pliz
##disziplin
##etab
organ
##ielle
stell
2000
##isierte
##vertikul
##äqu
##oi
Thrombose
Abgang
Befra
Gründ
##rainagen
hoher
##Hg
gesund
##setzen
Resid
pneumatisiert
##ervor
##frequenz
##ulum
ausgedeh
##upp
##leb
typische
##koll
##ikationen
subj
Staging
##teilt
Weise
##nnen
ev
##schatten
195
diskutiert
verd
##schau
techn
multiplan
Häufigkeit
Local
##irrhose
##ummer
Adipositas
Arthritis
Viel
Nur
##iele
distal
reduziert
bestimmt
##breiterung
##eine
Verhalt
ST
symmetrisch
gegeben
prof
Oss
Facetten
mus
##blutungen
Topogramm
deutlicher
##achten
dafür
##iber
Aspekt
regredient
##anach
##zenz
AL
Hü
##fällig
kaudal
knöchernen
Forschungs
##henminderung
tib
Nutzen
fanden
##beh
##schä
Abklärung
jeweiligen
##phen
##brü
##ulären
##laub
maligne
bolusförmiger
Erwachsenen
Konfiguration
unterschiedliche
92
Arz
Flu
medizinischen
Empfehlung
Zunehmen
T1w
##richtung
##fläche
Knochendichte
##NP
##ophyten
geben
Thyrox
##askularis
Las
##schung
Beim
##traktion
neuer
Ellenbogengelenk
digital
folgende
##osteosynthese
##halam
Interv
Jugular
##HI
Mig
##tielle
territor
mitt
##eradi
schwier
pop
98
Truncus
Resektions
Schlussfol
Fas
grenz
heter
Schlaganfall
Hö
Pass
problem
Zeich
##46
##iellen
##bauten
##jekt
Instr
##versagen
Gluk
Best
##sradi
##rägt
##lavic
##mb
##dosis
##ützte
Substanzen
arteriell
Voraus
Mik
möglichst
##amnestisch
Alltag
darstellbar
Unkl
Kopfspule
Exper
##alb
##ärzte
Beat
entzünd
##arakteris
Verhaltens
Aor
gesteiger
mittlere
carotis
korrel
Prävention
Fibro
dl
##orgen
grund
##lektase
heraus
##formen
Korrelat
##ingen
Homogenes
##ürf
##geschw
eindeutig
Pap
Thyroxin
Localizer
famili
symptom
peripheren
Familien
Altersentsprech
Pseud
##oss
Jahres
Ausmaß
bew
Dokumentation
##ül
wirksam
##menten
berichtet
##pass
ste
Jugulariskatheter
könnten
Morbus
Anschließend
welches
AK
##osom
94
##kalotte
##ektrum
Veränderung
##prochen
##schafts
##duz
##rusion
operativen
vis
##ahrscheinlichkeit
kombin
Lumen
##hoch
Spondylod
##ablen
##otherapeu
verschmäl
##HK
##nosen
ventralen
Gleich
Daher
Notfall
Insbesondere
Akzentu
ableiten
Zusätzlich
genannten
diagnostiz
##VA
Wissen
prak
umgeben
dadurch
isch
##nern
lob
resulti
Inhib
mmHg
Prozesse
Aortens
analys
##verteilung
##platte
Unauffälliges
progredient
##gestellten
dep
Inspektion
##chem
Sta
##kunft
##ignen
##legen
1000
##odens
##attung
Unterstütz
Teleradi
fleck
##reu
Demonstration
hierbei
Probleme
##gelenke
Aortensklerose
Gewichts
soliden
Dick
Abhängigkeit
Berat
Schädelkalotte
oberes
echor
##sign
venös
gefunden
HCC
##othel
Dieses
Europ
Thema
darstellen
##beteil
93
hervor
induz
Kompon
angrenzenden
Mitarbeiter
##ubation
Aussage
Ker
sensi
Präpara
Knochenmark
Areale
##ählt
##treu
parietal
gelten
##po
Rem
##itektur
##leuch
Harnwege
##ranten
folgt
zie
##alisiert
Damit
##ontal
##ischem
##enem
##sstellung
##läss
##16
kogni
äuß
uner
Besonder
htt
Tuber
Patella
##volution
lumb
##ction
DG
Median
Hydro
wand
kräf
malignomsuspek
##gungen
schriftlicher
##kap
Sä
2002
therap
Gadovist
Schleuse
parenchymat
Wurzel
##nungs
##slose
##ice
##medikation
pelv
brach
##OGR
LWK5
500
Train
posterior
Wirbelsäulenveränderungen
solche
miterfassten
höheren
Zugang
##achtung
signifikanter
Kontrollgruppe
##line
Retroperitoneum
##ypass
Rot
##veränderter
ja
##get
##tste
##etzen
vermehrte
NS
Mastoide
##ata
unterst
##auerstoff
##kerung
Primär
##fällen
metastas
##15
##siver
##ringer
##oiden
DNA
##lite
standard
##hafte
##agnosen
Darüber
KI
reich
Entzündungszeichen
Schrittmacher
vorher
Konsolidierung
Vorstellung
Überleben
##ests
verschmälert
##völkerung
##sklerose
Körper
akzentuierte
##zun
publ
##quis
##biopsie
periv
##atür
Orbito
Vol
Ausw
Überlebens
erkennen
Aspiration
##ennt
erkenn
##schutz
##azol
##ural
zuvor
Flüssigkeitseinlagerungen
##ament
verkalk
Palpation
##kennung
ir
Land
Rate
promin
gesunden
Ha
##lifer
ausreichen
Stabilisierung
Gesundheit
##iren
Val
berücksichtigt
Prostatakarzinom
auszusch
##acin
Hemm
Notfal
Fragebogen
##studie
einigen
##anreicherung
möglicherweise
Heil
##uli
##zten
Kommun
##kriterien
digitale
Außer
##phylaxe
##OF
retrosp
##antitative
##AMM
messende
kardiovaskul
klinischer
##rige
SI
##raht
##zuführen
##diaphrag
##IBIOGR
aufgetretenen
du
Sensitivität
fand
##fristigen
übrigen
##ER
##ikel
kranial
##elte
Unterarm
unten
##19
##utlich
##produ
##vexe
##ortae
##PI
Husten
Transplantat
##PS
##ziell
Geschlecht
##richtungen
##enzephal
Prote
Mo
Hypertonie
Cost
Schnitt
Aller
OA
Gener
bislang
##napp
tie
##operativen
Archiv
##dels
##ennen
Betreu
Vorteil
150
##hm
##öffentlich
fraglich
##operation
Neuer
##ließen
Komplex
##krankungen
definiert
##üh
##45
Beding
Sekret
##agegen
Entwick
Faktor
vorrangig
on
Hirnstamm
AR
##umpf
Teleradiologische
Sauerstoff
##anen
Kontur
##rek
##glieder
Vergleichs
MCL
Medikamenten
##pens
Einschränk
Implant
##chirurgie
einfach
bezeichnet
##legung
linksseitig
##aspekt
echoar
Rinden
pathologische
##fic
##tliche
Anschluss
Störung
##maßnahmen
beschrei
Lungenarterienembolie
Lokalrezidiv
Nebenniere
##beteiligung
##hou
##weichung
inferior
Meatal
##teri
##bilder
Systems
Arterien
lange
##NTIBIOGR
##NTIBIOGRAMM
##illär
##überlagerung
Angehö
##zustand
Hause
##ementi
Diffusionsrestriktion
##ards
deshalb
Emphysem
##höhung
##ganz
gerade
##orrh
Bekannt
intrap
Herniation
##ichter
##ocranium
gesamte
Lebervenen
##ulärer
##ästhesie
##rupp
Erfahrungen
##ampus
##lösung
AI
##reibung
suspekt
schmerz
##pirator
Sekund
##krä
Belastungs
##index
mittler
Miner
##elten
##station
Kleinhirn
##rifft
LV
##skelett
Zone
##atica
fs
##ogenen
Schm
OL
verhinder
##lexi
begleiten
Eingesch
abdominellen
Neurocranium
Nephro
cm2
##ofrei
##ganzaufnahme
Spezif
Magn
Antw
Spondylosis
wesentlichen
##neten
##schicht
portae
Qualität
S3
sicherer
Melan
##VT
##seitigen
Binnen
diffus
##26
##verdäch
großes
##wach
Venen
zervikalen
##konst
##rat
hum
ausgeprägte
Spinalkanalstenose
##nete
##riffen
krank
Nahr
Fern
Implantat
Progrediente
zumindest
schweren
off
##later
##peratur
##sc
Telefon
##ziehen
nod
Kol
##änn
##reund
darüber
Orthopant
zuf
##klärt
ok
##ents
betroffenen
ES
Weichteile
Mann
Nah
##ses
OR
##anken
SUVmax
##tran
vergleichbar
unabhängig
Rehabilitation
Lokalanästhesie
##ätzen
diskrete
##houette
##NF
Notfallind
Out
gez
Teilnehmer
Betroffenen
Umfang
sex
hypodense
ermöglicht
Postoperative
##anntem
91
Knorpel
Leistungen
##größ
Notfallindikation
##läuf
Katheterspitze
Minim
ResistenzErgebnis
##ments
zweiten
Begriff
##arin
Planung
rei
##öpfchen
se
##quisition
##systems
El
##gression
##ied
Blutungs
##sonographisch
Areal
##zur
internation
Leberlappen
Demenz
Forschung
Normale
Aspekte
externa
gleichen
##ect
##echanismen
BA
erreichen
##krankung
##MS
##tstehung
##geln
rezidiv
Mikroverkalkungen
##text
absol
Thyre
beteil
##audalen
Mäßige
Abstand
##entherapie
dessen
##sum
Heraus
Ernährung
##itro
tel
Rauch
Prozent
##gas
Bypass
paraaortal
Kur
##Tx
arterielle
Verkalkung
##zision
ansonsten
dort
##dar
qual
Proben
nied
durchgeführ
Mengen
##fäl
##klappen
##arbeitung
Dekompensation
konserv
psychiatr
Initi
Universitäts
elekt
##indel
Größenkonst
Insulin
##zy
Blutungen
Orthopantomographie
Lehr
schnell
##sätzlich
##lavik
Bewertung
##oag
##don
männ
##stehen
Geringgradige
Denn
mesenterial
individuelle
Kalzi
##prüft
auszuschließen
Osteochondrosis
Power
##iveau
##foration
##IA
##ergebnis
##ars
##ateralen
##weder
intraabdominelle
##lock
vertebral
##ersatz
##chond
temporal
##ödem
Berufs
SAB
gesteu
##okrin
festgestellt
Erosionen
occipit
men
betrach
exis
Prü
##diaphragmal
Gonar
pfle
##anü
Insuffizienz
##halte
dokumentiert
my
Durchleuch
##örung
vorderen
Sklerosierung
mechan
##geborenen
Studi
Kommunikation
abzu
L1
lymph
hiläre
ser
weites
Leitlinie
Abl
##clagen
Hör
##häm
##wegs
Schilddrüsenlappen
##ungspro
ACR
##üst
Normbereich
μg
##ortik
##igten
weist
##ares
Bronchial
##fuß
Dynam
##sicherung
Nierenzysten
##reifen
echofrei
##tek
##verbreiterung
Verbindung
Fluß
PSA
SWK1
Sonst
hypo
ML
##ände
Vitamin
ER
##jun
ausschließlich
##antes
##osin
##hilus
##thyre
##ändern
Etwas
aktuelle
palp
nachweisen
Sepsis
##ption
Meta
Außerdem
höch
##inanz
##hend
##steigerung
schlechter
##silhouette
Durchblutung
chronischer
Stoffwechsel
guter
Unterkiefer
##BS
with
##ettungs
##versor
Möglichkeiten
##ilen
##tigten
symmetrische
##ienen
dop
Punkte
Regio
therapeutische
Letz
##otion
Todes
##ranial
CM
WS
##gi
Rechte
##utzt
##naht
Trotz
Pri
Gra
beruf
##studien
Fahr
pathologischer
Mittelwert
Locker
Platz
##ry
Steat
Deutschen
Hinterkanten
Nebenbefund
verstär
##halts
##ägen
vereinzel
Pathologie
Bds
unauffälliger
entwickeln
##OL
vergleiche
bein
##weite
poplite
Aktivierung
##punkte
unterstüt
2001
##tef
##ographischen
Kliniken
dil
unterschiedlich
##spiegel
Rezept
##AGE
##trache
##feh
##gerüst
Größe
##arar
weib
##klinik
erk
flüss
##ener
##ikal
Herzsilhouette
Rücken
##cker
Verschlechterung
##ständnis
##osteochond
##syndrom
Bestra
knapp
thorakalen
##enthrombose
entstehen
##suche
Diffusion
beschriebenen
##ränkt
hoh
Ergebnissen
Sicherheit
arterieller
häm
anschließend
##kraft
Bedingungen
Anbauten
##raub
##trakt
treten
aufweisen
##wen
##ucht
bleiben
##flox
Zy
abdominelle
bekanntem
comp
##oskler
brei
Bruch
Gefahr
gastro
klass
##differenz
Grundlage
Koh
##mil
betre
unterscheiden
##tegr
Place
iliak
Hormon
##schreiten
verschl
##ichtem
##alisierten
##dienst
Lebensjahr
##ual
##oge
##alisierte
##17
##floxacin
Größenpro
##rische
entweder
##enster
würde
##immun
AFS
gesich
##ES
Lockerungszeichen
rechtsseitig
wohl
erhielten
##rah
therapeutischen
##diagnostisch
vorbesch
Vergröß
verfüg
hepatica
gewichtete
Nep
spielen
Foll
Symmetrische
MSCT
##ogenese
abgrenzbare
Stellen
Hinblick
Dünn
##25
##zeitige
##bereitung
##urk
konventionellen
benö
zusätzliche
tats
##ädigung
erwägen
hingegen
zart
führte
HAS
Herdbefund
##ress
Unterstützung
adäqu
zervikal
Berücksich
WHO
Entscheid
MA
einschließlich
##verb
berech
##regelm
##hrektomie
Spitzen
##ontan
Fettgeweb
Deckplatten
##anüle
bevor
Welt
Stichpro
knöcherner
##ausch
Erkennt
Arznei
Hart
Narbe
Osteolysen
gab
Virus
##grunde
linksbetont
scharf
##tifizierung
##sport
##omy
relevanter
Einengung
up
##terium
Schock
##Cl
##reduktion
##eta
##spezifischen
##uc
##14
Geburts
natür
reaktiv
Dial
Zusätzlich
##nieren
Schä
vermittel
Physi
wenige
Veränderung
Aufstau
Elektroden
Amp
##gerungen
schließ
##lassen
ihrem
verschiedener
bietet
##scheidung
##vari
##prechung
durchgeführ
rechtes
Direktzeichen
##rophie
flüssigkeits
##PV
Lungengerüst
Sex
##unkt
##unsch
starke
gra
Gallengänge
Hemmstoff
Stei
Klinisch
##cerclagen
Ovarial
##haldon
Beton
Angabe
Tä
gleichzeitig
##nungsver
oral
##arp
ur
Somit
Alignment
##sradiographisch
##erb
Pulmonal
allenfalls
##mod
Krebs
Beitrag
##ituationen
##oly
##sicher
bip
##äßige
194
stern
echoreich
eingebrach
##infark
externe
möglichen
##RA
gepl
Zarte
Erfahrung
2D
Enter
erwarten
##satzes
Supra
##phenoid
##horak
##uum
weder
Konzentration
typischer
##96
##ometrie
##supp
Shaldon
vermeiden
##27
Atrophie
entfal
erb
Zweit
##endet
Weiteren
traum
Quadranten
deutschen
SL
sonographische
Orienti
Transparenz
##yndrom
Pneumatis
deutsch
##aup
Verteilung
##parenchyms
##nadel
##uro
intersti
pneumonische
##onale
Team
Ventrikels
##ressiv
##Material
Rezeptor
mir
HASTE
Br
schwere
Entscheidung
Zuf
450
operative
##ric
stationären
prox
KU
Innen
##höhle
statistisch
sechs
Entzündung
pleura
Pre
erneut
##mungs
Kri
unveränderte
##estgehend
erz
##beginn
##hte
##tigte
##rologie
##verschluss
##tragung
##gmente
##tier
##SH
Inkrem
Kyph
##niere
Con
Hemmstofftest
##deckung
##dere
spezifische
##ML
##hältnisse
Interventionen
leichte
##ritte
Zul
gefüllte
##able
##ulmonale
Basalganglien
Rippe
zugrunde
##prothe
spezifischen
Und
Angio
##peten
Sonden
Flus
##blie
##asst
proximal
Krankheit
##herm
zerebralen
mediastinalen
Bedarf
##drüsen
Stimulation
##sätze
##alth
##bildungs
Erfassung
jedem
vari
jün
Fa
Pe
Degeneration
Moder
Auffällig
Ather
##stige
unsch
##verletzung
##weck
Vortag
Nebenbefundlich
Bar
behandelten
Ausgang
onk
co
##ssc
##ekro
##herde
##größe
Berücksichtigung
##äf
DR
##flamm
Konkrementen
voran
region
MCA
##fokus
näch
diagnostische
##öch
MPRAGE
Therapien
frontalis
ac
Cro
##cephal
native
Oberflächen
##artefakten
Rettungs
sicht
##üns
##fristig
Kopfschmerzen
Mitabgebilde
##order
##aktivität
Inspiration
CRP
homogenes
##wirkung
Operationen
Chirurgie
Zeichnungsver
Tests
Eingriffs
##tegien
fünf
beträgt
isol
##US
##ögen
Strom
##gegeben
##utzung
grenzwertig
PT
##ime
Signifik
##ussen
Ged
Gesichtsschä
is
BMI
geeignet
knöcherne
##wendi
Boden
abhängig
Costa
##schwellungen
##icin
Iden
##ologien
##arkierung
Quer
Flüss
pneumonischer
##zustellen
externen
Outc
akut
##IN
##empl
##thmoid
HIV
Interaktion
##zeiten
Kutis
##OS
##größe
##leist
Retra
Unfall
ergeben
Ery
Mesenter
Kollateral
##fragment
Beeinträch
Radiopharmakons
Mäßig
diagnostischen
##modell
kö
VIII
##lö
jugulär
zystische
##venenthrombose
Poten
Thrombus
regelrechtes
erl
PACS
##demi
##ufe
parenchymatösen
Belüftungsstörungen
Geringer
subchond
##greg
renalis
poplitea
Kennt
##MRT
diskret
Arbeiten
sehen
Phasen
aufgetretener
##greif
Sprach
Axill
##tritt
##eidung
AS
gehören
lokale
Tumors
##ansp
persön
Gallenblasen
Phän
##darm
##rhy
Coxarthrose
##eft
##kontra
Steil
##okken
Splenomegalie
Weitgehend
Tages
##sein
entzündlichen
Arzneimittel
##grenzen
distale
##entwicklung
Dil
LAE
Wachstums
dis
##ake
PCR
Filiae
Pneumatisation
abgrenzbaren
##präsen
##olateral
Einb
Aktivitäts
doch
##areal
Verlaufs
nimmt
persis
##ession
anatomische
##atation
Dissektion
Infarkts
##oris
TX
dilati
Welche
##LTUR
unveränderter
subp
Entstehung
Zeichnungsvermehrung
sphenoid
Calc
Mittelfeld
Uhrzeit
Dors
Einführung
##dimension
VK
erkennbar
##ema
KULTUR
Radiojod
Exposition
Pyel
bestätigt
##arn
bitte
Herzinsuffizienz
##ellitus
Hoden
koll
Orig
##nommen
extern
##arisch
chirurgischen
unklarer
Ben
Katheters
fibro
aufgenommen
regrediente
Sinusitis
Asth
##illen
retroperitoneal
Malignität
##wegen
wiederhol
Naht
CE
nehmen
Chronische
##to
##̈brige
##eten
unklar
Relev
Erfolg
##punkten
##amillär
##äten
Level
##MP
Verhältnis
Sark
Fäh
Anteilen
##mitt
##schmälerung
##gehende
E0
Dazu
##ängen
Nierenzyste
##griffen
symmetrisches
##äte
Dystelektase
Abs
00Material
##iskus
##ifok
Peritone
##beweg
S1
##venösen
##oglob
Beinganzaufnahme
indiziert
Leberläsionen
##hepatisch
Artef
##freie
##rekonstruktion
unterhalb
depres
maj
Kaliber
##bilden
hyperintense
Auswirkungen
interdisziplin
Plaques
entsprechender
##rieb
Nas
##tenose
Änder
Diagnoses
m2
Schutz
##arg
Speichel
Formen
##istal
Recessus
Lokalis
EF
##lligen
passen
entzündliche
Falle
Linke
resid
Ureteren
Gest
Malignom
Eth
##medizinisch
Begut
##besatz
Mes
Prinzip
##ationszeichen
retrom
##gnos
LWK4
orienti
##abstand
endoskop
allseits
Symptomen
##transplantation
##grenzung
gehen
Einstellung
Sport
GK
bedeutet
Berech
mich
mellitus
##räger
malignitätssuspekter
Sternal
##iven
##ometri
metastasen
Cholang
##ählen
Mangel
Fetts
##lek
Erbrechen
gestern
Magnet
innere
direkten
##sprache
individuellen
##werk
##ly
Korrektur
##intervention
Belüftungsstörung
Schall
##hist
##ruk
##verschl
Gro
##38
Internet
Aber
ermöglichen
Flusspro
Psychotherapie
##ete
Mammakarzinombelastung
Grades
##zitis
Transplant
Arteriosklerose
##ädi
unauf
##cen
bildgeben
TOF
##hilär
##ash
CCE
Lumb
mamm
##anim
##ordnet
eingeschränkte
KHK
##endem
##ildet
eingeschlossen
primären
##urteilung
Lab
lebens
gewonnen
Differenzial
Leisten
##iner
##wär
Hüfte
##akun
Jugendlichen
hepatis
Lufteinschlüsse
Steatosis
Struma
##präch
##kur
##tlichen
Inkremental
fett
##hernd
##flammator
Pyelon
##sweise
bestimmten
dagegen
##reifige
Sono
##co
mithilfe
##isthese
vermehrt
##verletzungen
Ablauf
erfü
##assozi
Geburt
Volumenbelastung
individuell
beeinflusst
wahr
##verband
peripher
Herausforder
##arthrosis
Orthotop
Beziehung
lä
##icillin
##tungszeit
##punktion
##old
breitbas
Epilep
##inkelte
osteophyt
frühen
thorakal
##gehoben
Lokalisationssc
##stimm
##ziehungs
##stelle
Com
Männern
Arterie
Phal
FA
##ifestationen
Polytrauma
##ellungs
##ränkt
Konzept
##herkennung
Bekanntes
niedriger
Tibi
NA
kno
Substitution
##chirurg
periventrik
narbige
Materiallage
##erst
infradiaphragmal
län
Oberfeld
Wirbelkörperhö
Blick
molek
unterschieden
Drainagen
bessere
Verlust
ambulanten
Leberzirrhose
Fibrose
##ierbarkeit
##org
Clavic
##möglichkeiten
Wahrscheinlichkeit
älteren
periprothe
dür
fix
##ubus
Minderbelüftungen
##sto
##besprechung
Verlagerung
##bedarf
##lstellung
##signal
Befundkonst
##cin
##zub
##abreich
FT
##tal
##37
Spondylodese
##forschung
Neuroforamen
Aff
bestand
mag
##vorstellung
Glatt
Große
Ka
##aterale
gewinkelte
Akut
##fü
Infektfokus
##eron
Fü
##PE
beh
wo
##wendigkeit
welcher
medizinische
häm
Läsion
Spezifität
lagen
beeinflussen
Therapeu
##infiltra
jungen
Item
Mey
##speicherung
Erhöhung
##ellär
##annen
Reguläre
Bul
Std
Duoden
##krebs
Bohr
Pen
Oberes
##öst
Syn
Traumafolge
##dens
##ies
##PA
L5
rest
Untersuchungablauf
Osteochondrose
Zunehmende
Gastrointest
##planung
Information
Blasen
keiner
##izierten
Schlussfolgerung
hepat
Aufhellungs
Familie
Glob
fet
##otten
geplant
Experten
psychischen
##ösung
zunehmender
körperliche
##üsse
##korrektur
begrenzte
mU
##konvexe
##tellungen
##inaler
linkes
Fibula
Nein
Leukenzephal
verst
##serung
unserem
gar
##urchmesser
##ektivität
##laus
epi
##hängige
identifiziert
##inkl
flüssigkeitsgefüll
##ält
##oler
##otal
Mul
Abschnitt
unzur
##indigkeit
Dichteindex
##ated
##gestörung
lässt
Blase
##oideus
Polyp
rek
Rout
überwiegend
Halses
Eingeschränkte
darstellt
exempl
##PH
Sternalcerclagen
Nahrungs
Abstrom
##28
Dosierung
Häl
Niereninsuffizienz
##häus
Hände
##standen
##olyse
##kompon
##ophysi
##odifiz
Mün
chirurgische
##omatöse
freund
##gestellte
250
##nungen
Anreicherung
Manifestation
Akzentuierte
##VID
Fettgewebe
intrac
Kardiopulmon
Strahl
##veol
##klin
auslaufenden
On
##gli
Zusatz
Techn
http
verantwort
##leiter
##orekt
hinteren
Ox
##vertikel
Den
dom
klar
Fet
Revision
Kapsel
macht
##kardi
##kammer
mäß
zugelassen
Übersicht
anderem
Stelle
Imeron
Ton
stellte
Vak
üb
Mitte
Einschätzung
Universität
Hälfte
ergänzende
Reizlose
Spektrum
Hüft
##perimen
CCM
##gebie
sogen
Kortikalis
Koron
##ng
##flächen
3T
disse
verzichtet
vollständig
##EG
##rus
kurzen
##nehm
Traum
##wesen
zentr
Mod
Wissenschaft
##plastik
dorsale
##zephal
tre
##mo
##agitt
##schätzung
##ymorph
evalu
Gelenke
##konzentra
Weg
##CM
Ohr
Analysen
ergän
##urin
##vertikulose
Auffälligkeiten
gemacht
wiederum
##alliativ
##nissen
##kopfes
thromb
hirn
axillärer
territorialen
wider
##send
##ichtungs
th
spezielle
##ehn
##artefakte
Szintigra
obere
##gefäß
wesentlicher
Pa
##veränderungen
##sprü
DO
Notwendigkeit
##dichte
Sehnen
arb
ausgew
labor
##mbH
Ol
telefon
##haupt
##vene
##darstellung
##osozi
kal
Prothesen
venöse
DS
Nierenarterien
Ist
Indikationsstellung
größenre
Heparin
##stitis
falsch
##setzt
Hypopharynx
##beton
##esten
mi
ihnen
##els
##pfle
strukturiert
Institut
Campus
Drei
Ener
Dopplersonographisch
indire
##opulation
##echanismus
##liegt
Partner
Offen
##BL
##rochen
Verz
##nä
vermutlich
##isst
primäre
lobuliert
verbessert
gesteuerte
##ifurk
##höhung
##ves
solchen
täglich
Ü
##ontin
##tsprechend
Berechnung
einzelner
Kraft
signal
##wahrscheinlich
verlauf
##setzungen
HR
##ella
##36
##hochstand
##rischen
##iatrie
##oxid
voraus
Remission
Assozi
Personal
malignitätssuspekte
Begutachtung
##fort
Weichteilemphysem
mein
##dickt
gewähr
Kontinuier
Nephrektomie
Kreuz
Corpus
##erding
Rh
verbessern
sin
kleinere
tempor
##pa
spielt
##groß
eigene
Trachealk
Pfeil
##protrusion
erlaub
##gige
##sthe
##uts
Produ
Programm
Wer
##architektur
##empf
##künf
proj
etc
beru
##izid
Leukenzephalopathie
##segmentale
Schleimhautschwellungen
freies
psychische
erhöhten
Brei
Aa
##ika
COVID
##breitung
Morph
Kra
1999
schm
versuch
##belkeit
##zone
Clips
Relevanz
##34
Beratung
##stoffe
##ranken
##affen
##ID
Sprung
H3
##riss
##arance
Spiegelbildungen
App
TK
IP
##iler
Themen
##ichtige
##ateur
##symptom
Bildung
##wandel
intrapulmon
##CLC
ascendens
Tumorm
retromamillär
CTA
##gesehen
ag
##tension
Skal
ANTIBIOGRAMM
anschließ
##por
##schnitts
adjuv
demarkierter
typischen
termin
Aug
##anx
Pankreatitis
##gebenenfalls
##karzinoms
tast
Anforderungen
##que
##arter
wirk
Übrigen
Angehörigen
hilären
Messungen
##95
##sehen
##aria
Tem
##alzellen
##isen
pariet
##sprech
Fel
##otischen
##omyel
Betreuung
SG
##horn
##ogener
GmbH
##gert
subkutaner
##learance
Komorb
##FS
##zahlen
Befundbesprechung
##ekti
##phasisch
##altubus
HTML
Nierenfunktion
##itoren
Einsender
Aneurysmen
Komponente
##essour
Clip
Placebo
##atrix
Gastrointestinal
##ted
Auswahl
notwendi
Sehr
##entro
Del
Signalan
Super
Einblutung
FLASH
##strahltechnik
##ulare
Fragment
##zwischen
##akterie
##lagert
Zentrum
Bestand
prognos
Nerv
##zym
unerw
sozialen
##gelegt
Kompeten
Fehler
con
deutlichen
##panation
Plattenosteosynthese
##kri
##kuppen
koronare
exemplarisch
##eff
Sklerose
negative
Hartstrahltechnik
vorliegende
##thmus
CP
Telefonische
nieder
Line
##stech
AG
##anzt
frisch
hem
##ille
##gram
Eingang
kardialen
Höhe
##eiß
##ziehungen
tumor
##suspekt
ermittelt
##öl
##HS
angeb
Allen
MD
motor
geehr
Regelrechter
Leberparenchym
meth
##raube
Halsgefäße
##zung
Hilf
##rän
##rit
Portkatheter
weißen
Vorteile
##ontroll
seinen
##cop
letzt
Zukunft
##patell
Bauchwand
mark
paramedi
##ald
enthalten
##klären
Kontinuierliche
Beatmung
Hämangi
##üch
Spezie
##ständen
##legte
Spann
erkrank
Projektionsradiographisch
##version
##minderungen
Hämat
RS
Unklare
##osierungen
##ammlung
Kardiopulmonaler
##ology
##üllung
emotion
Umgang
##riedenheit
Draht
ihm
##urger
##osteochondrosis
Gute
kürz
##lichkeits
##fib
##durchmesser
##lab
negativen
Zytok
##schlag
Rein
Lauf
verringer
Lungengerüstveränderungen
ausgeprägter
abdominell
Neurologie
Defekte
##ektiver
Befundkonstanz
Gonarthrose
eng
Stammganglien
Fok
Klinikum
konk
Jetzt
schwierig
##igh
##herz
##sep
Map
##jähr
Schlank
##zid
erfahren
##glas
Obwohl
Hb
SAP
fehlende
grupp
##loge
kortikale
diffuse
##sien
Appendix
Thalam
##kin
##styp
##hepatische
##kollektiv
regel
##örderung
Plaque
Oberarm
##elia
SC
Promin
##okokken
Techniken
##oralen
##arbeitet
invasive
gemäß
atroph
schwerer
malignen
Quantitative
##lockerung
Stud
Angeb
Bandscheibenprotrusion
##weichteile
Mittelges
hät
fehlender
lokalen
TNF
##ssi
superfic
spricht
persistieren
##anals
HE
orale
Glen
erhöhtes
##konom
verdick
Sitz
hilf
Konzep
erfassten
Plasma
Kern
##tumor
Indikationen
kontrast
##ostentz
erweiterten
Betonung
##orismus
##plum
beginn
Akquisition
Reanim
1998
##ortalen
##stände
subm
##ätzt
Antibiotik
Belüftung
Datensatzes
Extra
form
vertebralis
weg
##bus
PR
Herde
##seite
##invas
L4
seltener
##ssaum
Lie
Gesetz
Zentrale
##intensitäten
ehem
Trachealkanüle
Facettengelenks
Gli
##hyper
##äk
kardiopulmonaler
durchschnittlich
altern
##sin
##39
Schwindel
pT
Col
Zugangs
##IT
##ahrneh
anatomischen
Bevölkerung
Schwereg
gesetz
Park
Leiste
Outcome
Abdominal
langsam
##abler
Eingriffe
erstmals
aktive
Bogen
##iterfasst
Laser
Asthma
veröffentlich
##ährend
wiesen
##istaltik
##aneurys
Mutationen
##itieren
Meyerding
##24
##pre
##thal
versorgt
Kat
akuter
Morphologisch
Residuen
##egment
erhoben
##abweichung
Radiatio
Eigenschaften
interess
metabol
Bewegung
##bew
ähnlich
Ausgedeh
jünger
Ulna
##zyten
##onisten
Ham
##arynge
##este
##gern
##seitige
##verhältnisse
Kontrollen
##arkose
Konsen
zirkul
##unn
##köpfchen
oberhalb
Höhenminderung
##örm
progredienter
zusätzlich
reiz
##itale
Dialyse
##ierbaren
##bezogene
funktionelle
sim
##still
##yg
##schwie
##reson
##EN
##artik
Einlage
Zentren
Hierzu
DI
##ring
rheumat
Atherosklerose
oberfl
he
Flussprofil
Bewusst
Ressour
##bry
Clavicula
Lu
gehört
##platz
intermedi
abdominalis
Lebersegment
##ervix
Brach
##urt
superficialis
langen
soziale
Mittelbauch
##ssequenzen
##ieden
Segmenten
hingewiesen
behandelnden
misst
##ifurkation
##ination
Horn
##umente
Persön
##ikroskop
Herrn
tritt
resultieren
vitro
Tier
Infra
besondere
Spender
gewährlei
versch
##rahmen
Werten
Reihe
Reaktionslose
San
##flik
Troch
##inson
Passage
LWK1
##ongation
##obasal
Schaft
Soll
##stag
##osus
Entwicklungs
vaskul
Konstant
##reicher
Training
Mutation
manif
Hypo
##itel
##medizinischen
laut
##onal
wissenschaftlichen
zell
Ernährungs
Verdick
Milch
##deckt
Achsen
Kortex
##ndes
Hepatitis
Che
Larynx
Koch
##ichtes
##ystolithiasis
KG
vermehrten
zug
Follow
##aff
unterschiedlicher
##erklagen
diagnostiziert
##ioc
Komplikationslose
##opt
##sell
veränder
darin
##hämatom
cerv
bronch
##aschen
verwendeten
##teorismus
Sol
implan
##culus
##bank
Konse
##hinter
Parenchymbreite
##welt
Befundvergleich
##ala
##anne
##gorith
Psor
##atrophie
##atektomie
##kapsel
Vielzahl
Überlagerung
##RD
##chol
Neoplas
zukünf
##tief
##fache
tumors
Gefäßzeichnung
##izop
Kultur
##linge
##int
bedingte
Andere
##limm
##resp
RK
##ork
Antigen
Progress
darf
Weichteilschwellung
##ordose
##management
##wirken
Befundwandel
können
Ball
Mitt
kardiale
inform
##bestimmung
Stufen
Pan
erfolgreiche
##grade
110
erlaubt
##omycin
Perit
Fortgeschritten
Erythro
##sturz
erneute
lei
ließ
##orale
infolge
Endometri
Schwere
stärk
##actam
##tierter
##weile
##gegangen
respirator
Achse
##nähernd
Such
##orrhag
##äres
##hinaus
Low
jeden
Halsweichteile
bestimmte
Krankenhäus
##asten
##weist
##CR
randomisierten
relevant
Sozial
gezogen
##zunehmen
Reposition
##psych
##zipital
##inform
analysiert
Linkss
Füße
##aller
erweiterte
##BV
Menge
Antwort
##irk
Verschattung
Ebenso
Sonde
##ächt
##stellungen
vorgenommen
ass
Leistung
##oprost
Dete
Regrediente
##skler
##leh
##thrombose
##adenom
##ease
##metastase
##aparoskop
pect
##orsion
Erstuntersuchung
Glomer
tiefen
begrü
Lebermetastasen
obj
Rippenfraktur
konfluierende
##stabilität
##hlt
##ue
Acetab
nichts
Anastomosen
##dren
hormon
##gru
Mittellappen
Statis
Dien
angesehen
##klein
##äres
Fettgewebssaum
basil
Epithel
##öser
##analysen
pharmak
##anteilen
Lymphknotenmetastasen
##mol
##deuten
Is
unsere
seinem
##äure
Zentral
Aufgaben
Beobachtungs
Tex
##asse
postentz
stra
##hiert
##arker
Begleit
zyst
konfigurierte
maximalen
Besserung
##opathische
existieren
##problem
Gene
Kontrastmittelphase
Health
Stimm
bilden
intraperitone
häufigste
##izierte
Lösung
AFC
hy
##muskulatur
VP
Psoriasis
Diagnosestellung
##stim
integr
perifok
Version
##leun
rein
Antikoag
imponierende
##mission
größeren
Schwier
Mobil
##ästhes
##pret
##glichkeit
Subtraktion
Zweck
Vasosklerose
##ST
Onk
Schwei
zentraler
Et
Atelektase
Entzündungs
betrachtet
erheblich
##gene
hirnversor
##ühzeichen
stärker
Digit
##luck
initial
Dig
Phosph
Involution
Retraktions
Regression
##epti
besten
Frakturspalt
danach
Bebrü
VE
Vermeidung
guten
Embolisation
Mesenterial
##scht
Grunder
Kalotten
epilep
125
##istent
##sw
Ort
Energie
sprechen
gesp
daraus
verk
##frage
Krankenk
Zulass
Aufklärung
##ody
auszu
Gefäßarchitektur
##verhalt
dient
Abschluss
Darmgas
belegt
homogene
beeinträch
##edes
Multis
Bereits
##ensicht
ö
komplett
##bedingte
gesehen
Anwend
Antibiotika
##tschaft
Char
geführt
Signifikanz
##BC
entzündlich
Tats
Territorialinfarkt
Autoimmun
##askularisation
##izumab
##ehm
UV
##gänge
Osteosynthese
entsprechen
retroperitoneale
MW
Kelche
Kontext
##ptake
##pation
Steilstellung
Variablen
##ary
##fragen
mGycm
dislozierten
##ergebnisse
##fok
psychosozi
##liegend
gestauch
sphenoidalis
##abstrich
##uhr
linksventrik
##ling
berücksichtigen
##tlant
##geber
Interview
##tere
##ärbung
wenigen
##sonogramm
genutzt
konventionelle
##opar
##vern
aktiven
Bestrahlung
##oxiz
Anfang
Schmerztherapie
zahlreiche
Fehlen
##luxation
Scores
##apsulär
##planare
Zer
grundsätzlich
verursacht
##omas
##ameter
##äher
##tegie
##versuch
ZNS
Lern
Ja
##HT
Auge
Magnetreson
plan
Richtung
##oblast
abzugrenzen
##ächst
##tial
ventraler
Ländern
##ember
##hängigen
vorwiegend
zervikale
##zyste
DIP
##ärbung
WK
durchaus
mehrerer
##irus
##dierung
##kosten
##lice
Sagitt
coelia
##ontrollen
##mitteilung
cMRT
hierzu
primären
Ggf
Ereignisse
##folg
coronare
##mittlung
##verse
Proce
UF
darüber
##heilung
korre
anhalten
Signalalter
Heter
Bü
GB
##ilddrüsen
stehenden
##HA
intrahepatische
Spiegelbildung
##ON
stim
##21
Nummer
##szintigraphie
Sal
angew
##uthyre
SSW
##roh
modifiz
##flossen
##anst
Melanom
##situation
##oxin
##indungen
Miterfas
rad
Gastrointestinaltrakt
Lokalisationssequenzen
beids
##verschmälerung
##lassung
105
Retraktionsphänomen
mil
sichere
Län
dauer
Skala
##gesund
angelegt
PIP
Licht
##lut
cervik
lip
##metern
##faden
allerg
##ytherapie
funktionellen
##oidose
Oberfläche
##respond
nah
Radiusfraktur
Computer
Durchgän
MM
Rundherd
Wiedervorstellung
berechnet
alters
Sigmadi
verantwortlich
Interventions
Marker
jährigen
Monitor
äußere
Zusammenarbeit
Schwerpunkt
Kan
Mediastinalverbreiterung
zarter
Nacht
##ängt
lim
NTx
Stadien
event
zusammenge
unscharf
Vorbereitung
berichten
systemische
##stimmung
##omyelitis
größer
##vo
##angeb
berandete
benigne
##not
Ressourcen
Hei
##ibierung
Verdichtungs
Säug
Gesam
##gehalt
##äden
##zeitraum
##schritt
Nierentransplantates
intralum
Av
caudal
##ffer
##prüfung
Hepat
##pathie
Cholezystolithiasis
thorakale
Endothel
##ystitis
eingeschränk
Radiojodtherapie
##bring
verminderte
##ococ
##gehab
##ykar
geringere
pulmonalvenösen
cerebri
reichend
Umsetzung
außerhalb
Procedere
##istr
Breite
##getreten
Ärzten
Kontraind
unwahrscheinlich
Allenfalls
tastbar
Sakro
Brachytherapie
letzte
Uro
Visus
Plattenepithel
##kutane
Tal
Peristaltik
Management
durchgeführt
welt
##schwer
##üd
##oriz
##353
##niveau
##70
mensch
##iper
Hall
##recht
gesundheits
Wohl
##OP
hierfür
Sum
metastasensuspek
##late
##geschwindigkeit
Nebenmil
##fristige
##versi
##methoden
Sowohl
perihilär
##hör
direkte
Autor
##hältnis
hel
Aussagen
mm3
tatsächlich
Mitabgebildete
intraabdominell
##29
bewertet
einerseits
Dennoch
Artikel
SDH
untersuchen
Ileum
verblie
Wider
Szintigraphie
Sulcus
##rumpf
Metall
Ihre
bem
Bülau
##ymmetrie
Hal
Dynamik
Fortgeschrittene
##oad
durchgeführten
##drig
##umin
BD
##scheidet
MIBI
Frü
stattgehab
##geleitet
sem
##ulations
Pfortaderthrombose
##hnlich
vorgesch
Konvention
obl
reduzieren
##stechnik
line
##AST
fT
##usch
##olumb
##80
##sicherheit
hochauf
Dickdarm
Hypodens
Sil
AT
Ambul
verkalkte
regelmäßig
Segmente
Minderbelüftung
##ünsti
##ikan
erwäh
Informations
verhindern
##alls
hal
konsolid
hilfreich
1997
RR
##oreszenz
##ntgend
##spor
Vaskul
Hel
coeliacus
Reaktionen
Einrichtungen
##entral
##skeletts
Multislice
##dium
##60
HPV
##bron
##aktive
genannt
Enge
Effektivität
Ziele
Verkalk
##gus
Ok
laparoskop
umfasst
Moderate
Ausnahme
Pr
##ahrnehmung
Stre
##überleben
größere
##fahrens
##RNA
##komponente
Schwangerschafts
Rippenfrakturen
Übrige
Posi
ref
##oter
##part
Cef
positiver
##ogl
Guter
zyt
##äche
##fehler
beachten
##unfall
Territorialinfark
##streckige
tumorsuspek
Polabstand
##fenster
##orie
Abfluss
eth
##uster
Infektions
##laps
phys
konsekutiv
##rien
##operativer
außerdem
##lappe
osteop
##verkalkung
##haften
##LD
Vordergrund
leichter
##gefü
Gelenkstellung
feh
Frank
##zul
LTX
ihres
##ilie
morph
##urgen
erklärt
##uläres
##dienz
##öpf
Erguß
##förm
##ueller
RE
##bend
Zwerchfellhochstand
##otin
Stellenwert
Kreb
eindeutiger
Ebenfalls
##kompliz
Media
##zeitlich
malignomsuspekter
extrem
ärztlichen
mask
Thoraxwand
distaler
##aupts
##ticus
##beurteilung
Parkinson
systol
Morbidität
europ
grob
gleicher
Einbringen
Dermat
##werde
##induz
nas
sichtbar
ausführ
mangel
angenommen
Ethmoid
##kol
Aust
##llung
Trachealtubus
Drüsenkörper
blie
schlecht
Spl
Gelenks
Ansprechen
##maßen
##ächungs
Glukose
Makroskopie
anamnestisch
Farb
Molek
##lor
##nitten
kultur
Sur
##ftw
jede
eingeschränk
beobachten
Lymphozyten
Krankheiten
Fe
Gespräch
##acillin
##irurgen
entsteht
##antels
##ynäk
NSCLC
Verständnis
##spezifisch
eindeutige
##amer
##beschwerden
qualit
##drittel
Temp
##äuft
##sstelle
Regelrecht
##CO
flu
domin
Vergleichsaufnahmen
##eute
bakterie
##ips
##aufgetreten
apikalen
Epilepsie
Frequenz
flächigen
##bronch
##achtet
körperlichen
##odelle
ableitende
Sus
segment
beginnende
Therapieop
Einschränkungen
kaudalen
liegenden
Transplantation
##prothese
Mechanismen
gelegene
##stern
##gender
Gründen
bezogen
##iliak
##LI
Ösophagus
##uktion
##mantels
intervention
Projekt
##gestützte
##parat
##ktas
DK
mul
Az
##fälle
scheinen
##säule
##artet
TVT
##osklerotische
Ruptur
##kanal
##iste
sti
Voraussetzung
starken
ISG
Palliativ
##ekts
Richt
Schranken
##herd
Cap
##mut
##bestehen
Result
Temperatur
##ococcus
##sifiz
neurologischen
Bilder
fac
beste
Anpass
Kollagen
ged
ung
##atisierung
##odynamisch
Interesse
Hosp
verabreich
Kompl
##sophage
traten
iliakal
##hän
##frühzeichen
##enkatheter
lokal
Abw
##dep
##amination
##ortale
regelrechtem
Herstell
Abschn
gerech
##bett
passend
Intrahepatische
Kleiner
##pflege
fortgeschrittenen
##ände
mesenteriale
flächiges
angep
Magnetresonanzt
Ped
##ächtnis
##cl
##ielte
kurzfristigen
Verl
Probe
Ossäre
##tischem
möglicherweise
HD
Herzens
##ole
während
Abfall
##istra
Danach
submandib
umschriebene
offenen
##merk
CB
##nar
Entzündung
##gerte
München
##ädiat
##22
eingeschränkt
Metaanalyse
histologisch
Zahlen
durchflossen
Gefäße
extrahepatisch
Tumora
andererseits
Thrombozyten
Diameter
vi
altersentsprechend
präsen
bieten
Größenkonstante
##artigen
zuge
##areale
Deh
##schlä
Signalverhalten
Regredienz
##schul
Abklärung
##them
Aufmer
Aufent
wichtiger
Nephrologie
schließlich
Ausprä
oraler
Fremdaufnahmen
Pharmak
bedarf
Weichteilmantels
bestehenden
normalen
ihn
Cholangien
##auigkeit
intrakraniell
##onat
##vergröß
bevorzu
##quelle
##aug
rundliche
problemlose
versus
Größenre
dick
Kollateralphänomen
vorgestellt
Reflux
erzielt
dynamisch
SV
Publikationen
Alternative
Mail
##ystemen
würden
##atars
Befundmitteilung
##giene
punkt
##klusive
##linder
Perforation
beinhal
einsehbarer
einzi
vorliegt
Gold
beitragen
Folgenden
Emission
Infarktdem
erfordert
Intubation
Kli
Defizi
##indungs
IgG
##ekrose
Leich
Suizid
gelegenen
Hili
offensicht
##zyt
##gemessen
Impression
cranial
Chrom
T3
##abschnitte
Restparenchym
##dition
geboren
NET
##äischen
Gesicht
##best
Sem
Vorhoff
##diagnosen
Hemi
##jen
rö
Ir
##membran
Stanz
##grenze
Items
LG
zweite
Lid
richtig
##itzw
gram
Aneurysmas
##anspruch
maximale
##ufnahme
##beobacht
##atomie
präoperativ
ausgeprägten
kritisch
wichtigsten
##block
weitestgehend
erfolgten
überprüft
##oton
Stein
##hebungen
ergaben
Ausgangs
anzu
Orbita
pH
##ographischer
gegenüber
Rheumat
Famili
##selben
Versich
Prolifer
Misch
Geschlechts
LWK3
indem
##leit
Sprech
##xen
Progredienz
nennen
Proteine
besseren
Protokoll
Prothese
##freien
Crohn
Deutsche
MC
verbesserte
palpabler
Processus
intracranie
##alin
Mein
##Be
Ethmoidalzellen
##senbein
Reanimation
##reicherungen
Orthotope
##salz
##arbeiten
sc
Jan
Lymphknotenbesatz
Facettengelenksarthrose
##Innen
Jedoch
Interpret
el
##terte
##neumonie
##icro
Nor
Exter
##egion
##lapp
TR
##itzend
Erkenntnisse
##säure
Diagnosen
ero
##achte
Muskulatur
zählen
Teilnahme
kontralater
##urie
nein
Bolus
Bisher
mehrfach
hohem
##TH
##pher
imponierend
Ausdruck
##teilresektion
Oberflächenspule
Histologie
##ause
µg
mäßige
##igem
durchgän
global
Om
##thel
##führen
##68
##arz
##zentrum
##brü
Abdeckung
Nie
möch
Pleuraergusses
##gregat
ausgewertet
heutigen
Assoziation
intakte
HC
GRE
##menge
Binde
##yclin
Vereinzel
##amid
##gels
##chow
##obac
##yklen
wirkt
Meteorismus
method
Schilddrüsen
Spondylarthrose
##ostomie
130
Bro
Nov
ili
Schädels
Immunsupp
Mak
##phylak
##wirk
öff
##wachung
Schrumpf
plus
IS
AN
Ram
##eitige
##ruptur
UrinGeb
##licherweise
Ga
Cereb
Schweregrad
##licht
##relief
Imb
Mäd
Quelle
##fallen
etabliert
Nukle
beurteilt
DM
Gehirn
Var
Dekompensationszeichen
##rö
Letzte
Untersuchungsbedingungen
Mitglieder
Kenntnis
##plus
gegebenenfalls
##fett
##bringung
Fremdkörper
Dara
mut
osteoly
Vier
##timplantation
konsekutiver
spitzw
##generation
##decken
##bezogenen
##47
##zeitigen
Musculus
##biqu
MTP
Maßnahme
Vide
##gigkeit
Tuberkul
Acc
##schrift
##ena
Carb
Strahlentherapie
gestützte
##färbung
Nervenwurzel
Sagittale
##okarzinom
##anstieg
Hochgradige
gewichteten
Erkrankungs
minimale
##gren
charite
Problemen
##klusion
reduzierte
##ödem
SIG
Bo
führ
Transparenzminderung
geform
heiß
MCP
alles
Keil
##temp
Eng
##stet
umfassen
har
Primovist
##ivo
Vakuum
Eingriffes
Biom
##ters
Virchow
Individ
laterale
nö
Dilatation
Schlingen
##ood
aufgeb
vermehrter
multiplanarer
Gewicht
kleines
Verhältnis
Sensibil
Enzym
regredienter
##pli
##ta
Ast
Durchleuchtung
##äum
Diffuse
erscheinen
mitabgebildet
##spektive
##otro
Nadel
mikroangi
Bull
gruppierter
Leicht
polymorph
Felsenbein
##edull
Tach
Osteomyelitis
##ftware
##esti
enhanc
kontinuierlich
##99
##tigkeiten
systemischen
Orientierung
Beeinträchtigung
##fikationen
Akute
And
nachfolgen
erklären
LD
sicheren
Unterkante
steigt
##spitzen
Aufgabe
Bulbus
osteoplas
wirken
degenerativer
##aneus
##bildern
weich
##lösen
##betonte
essen
##mel
Rezeptoren
Situationen
Intensivstation
helfen
Ratio
##methode
Sternalz
durchschnittliche
Nebenmilz
Lungenabschnitte
größenkonstante
##gemäß
##nahe
##operationen
##rekonstruktionen
##boden
Früherkennung
finanz
##verschie
Miterfasste
Pankreaskopf
ehemal
Grunderkrankung
randomisierte
##hilfen
Falls
rück
Sinn
Flash
pos
ausreichende
##anhalt
beschreiben
##kräfte
DE
Sekre
Hypertrophie
Pleuraerg
ITS
Thym
umschrieben
halten
unver
kalk
##osynthe
Prädik
medikamentöse
Heute
##igm
##entin
rasch
Charakter
RO
##lok
##ischämie
Rundherden
speziell
##ächungskorrektur
Clearance
Monat
out
ASS
Buch
Trochanter
##standard
infiz
invasiven
Fiss
##utent
##mangel
Speicher
Aortenbogen
resorb
ventro
Phänomen
Bett
Stichprobe
potenzie
Bereichen
beurteilen
##gründ
tom
hirnversorgenden
##onus
Einschluss
entnommen
Tast
sac
Durchschnitt
Schilddrüsensonographie
Blutkulturfl
perihepatisch
sekundäre
effektiv
HS
kol
schmal
dienen
##üssel
dissemin
Überein
##fibrose
profund
eingeschränkt
Impfung
begonnen
unspezifische
befra
marg
liegende
Einteilung
erhöhen
angewendet
Sozi
##andid
Minimale
intrahepatischen
##antwortung
##adt
##ulae
Matrix
Obst
verfügbar
##losigkeit
konstanter
Membran
solider
Sondierung
##oduli
spitzwinkl
Scan
digitalen
Wirkungen
140
Formation
Darüberhinaus
1996
Vorhofflimm
Verkehr
lakun
gestör
flüssigkeitsgefüllt
IF
verwenden
Hämangiom
fa
##teilen
Sternalzerklagen
Miss
##ikale
nächsten
##dimensionalen
lock
Dysfunktion
Mädchen
verzö
##igament
Radiopharmaka
##zepti
wege
##arthritis
dennoch
Erhalten
Leukozyten
##ble
Hom
HNO
WNP
Dünndarmschlingen
arthro
##oprostase
##zeitpunkt
proximale
Lordose
##aufstau
imponiert
Betracht
wer
gewesen
Infarkte
Sach
##eigen
vormals
hinzu
##ättigung
alten
##zeichnen
Arbeitsgruppe
mitein
Gebiet
##timmen
solide
beschreibt
##onalen
kontrahiert
cell
streifige
EPI
S2
skler
##ützt
verlänger
Längs
##termin
##atelektase
##zeh
echoarm
größenkonstant
größenprogrediente
Hornhaut
##olgt
##nerven
Materiallockerung
mes
##apill
fehlenden
weiß
Schädigung
##iehlt
##senkung
##erdurchmesser
##forme
zusammengefasst
##akral
##axial
sensibel
##zielen
Postoperativ
PCA
Muk
Dünnschicht
Territorialinfarkts
vivo
fests
##ozel
##iocephal
selben
entfaltet
##zysten
empfiehlt
Eingriffen
Ange
Retin
Ergüssen
Koprostase
##gefähr
Eisen
Gründe
MT
##bereit
##zeration
experimen
Äti
Sa
gefähr
Deshalb
Coch
leiden
offenbar
##utete
Fot
##henminderungen
##stationen
Oro
Trepanation
Klasse
FK
arterielles
##opsien
##titis
##sstenose
##aner
portal
Mer
##AC
##pir
##vall
Spü
##thalm
##ping
Synov
##rib
Sym
inklusive
Nik
Fü
Inn
Migration
subpleura
Zie
##zü
##glied
länger
Progression
Zeitpunkten
BS
Muster
Stents
##relev
Umgebung
Coxarthrosis
Trig
RH
##align
##oson
myokardi
komprim
##adurch
Wunsch
##lichem
Appendizitis
Ihnen
##zes
Grundlagen
##holung
##zeptibil
größere
flaue
Prophylaxe
pub
##sszintigraphie
Herzfrequenz
reaktion
Hum
##vaskul
ATP
##ofib
major
Non
Halb
180
TACE
zystischen
##load
Volum
Psychiatrie
Pneumon
Nutzung
Anästhesie
##osynthes
Befragung
##krankheit
periren
Stark
Systeme
##prozess
echogenität
zusätz
ziehen
Fluor
Dadurch
abges
##personen
##atorisch
oval
Phle
Bebrütungszeit
genetische
Magens
Tie
##plikationen
##läufe
##blasten
Zungen
##igungen
##drück
chem
Überblick
nachrangig
VS
Zervix
Instrument
Querdurchmesser
##artikul
Kollektiv
##44
Ide
Zusammenschau
seien
##proben
##flex
##zien
erkannt
klassischen
ARDS
##sh
posttraum
fettges
Voraussetzungen
vermieden
MF
Viele
familiäre
##vis
entscheidend
Kalzium
##adap
Ventil
BR
##ennzeichnet
pati
unerwünsch
##konzep
Amin
##65
histologische
Neugeborenen
überhaupt
Vers
##pft
brachiocephal
führten
##ongi
##tiker
Merkmale
##blä
##gesell
##eid
Ansätze
Internation
##liegende
Hinterkante
Can
Wege
Bra
Knochendichtem
##spr
##mina
##ärt
##ankungen
weltweit
##agt
mmol
Gram
##haltige
##brigen
relative
zweier
##enken
Besonders
ern
After
angeboten
##angs
kontrastierte
Vorhofflimmern
##loch
Blutent
µl
##nehmenden
Zn
##qual
Mass
##ean
##meh
Anter
##sprach
##ulationen
Zug
##verdächtiger
Verk
periprothetische
Gefü
deta
##ril
recht
##bahn
##brechung
Entscheidungs
PJ
interpre
##tracheal
##33
allgemeinen
komplette
##pliziert
heterogen
Flüssigkeiten
dorsales
Etwa
infratentoriell
##geschnitten
Oroph
Zah
##uchs
beteiligt
Plex
bin
##oplastie
malignitätssuspekt
reag
Vorbefund
Archivierung
2mm
Prüf
##ugen
Femurk
Spondylosteochondrosis
antegra
belegen
Samen
Fahrrad
letztlich
älteren
angewand
##enkt
Außen
##defekte
Konzentrationen
##reaktionen
Instabil
alt
Nieder
##onym
Betrachtung
occipital
##lip
##ifiz
##morphologisch
descendens
beantw
Interpretation
##erend
Herausforderung
Medikament
rückläuf
NO
##üle
##onomie
Multiplanare
gastrointest
##atinin
Behinder
befindet
Nation
##beu
belüfte
exprim
rese
Bedürf
##ücken
Intens
##ruhe
Leberzysten
Tonsi
gefolgt
Marklagergli
##ichtsp
##derm
Handlungs
Plasm
Steigerung
##tio
##hei
##flora
Kniegelenks
mittlerweile
Charakteris
##schleim
Py
Auffällig
diskreter
konfluierender
##schaden
reicht
##ernen
differ
Schluck
Regionen
##90
##üt
repräsen
##pliance
werten
ältere
vermindert
Coil
##infektionen
##gefüllte
Seitenvergleich
##stadium
##ostoma
vag
##strat
Ereignis
F18
##herapien
unge
##utem
offene
intram
parallel
##ci
##tasche
115
Wirbelkörperhöhenminderung
gestaucht
Nasenbein
Routine
##sterreich
kognitiven
Lagekontrolle
Original
##ärztlichen
peritone
Gangaufstau
Funktionen
##volle
Body
NI
##pha
zehn
Import
Maxim
Stär
Inhibitoren
gaben
Funktionsaufnahme
gekl
Anspruch
Tx
lateralis
##din
Ext
obwohl
HF
##ohner
Review
##kunde
Jähr
Sicherheits
T4
neuaufgetreten
M1
unterscheidet
##mehran
##alm
OS
diffusions
cerebellär
will
Fund
inzwischen
Befragten
gemisch
Erwart
##gesundheits
##mäßig
breitbasig
1995
104
##klärt
##entam
Seitengleich
Stunde
Neg
ärztliche
##intensität
NP
##soas
profunda
ausgel
##rich
aufweist
Kalottenfraktur
##spiration
Staph
##oxizität
##volum
haupts
Prämedikation
Uptake
Erythrozyten
Signalalterationen
EM
musste
echofreiem
##verständ
##azerb
HA
Kontusions
Myelopathie
Anforderung
kod
##oe
ACE
Mineralisation
kognitive
##algelenk
##attungen
##istenten
##ius
##ällt
##sprün
##systeme
##burger
verschlossen
##rist
Schädel
##spin
Kompressions
Häufig
Naso
Gast
##zol
##muskel
Lös
##ansatz
##ologe
Streck
Cholezystitis
Laut
102
##einsch
sieht
charakteris
##olge
verplum
Stenosierung
RCT
fettgesät
##ordnen
##RI
##yster
##ancer
Koronarsklerose
##orizont
zahlreichen
größenprogredient
inhomogene
Knochendichtemessung
bedingten
##basierte
##CI
##ählten
War
Fettsättigung
##versicherung
##etzung
seltene
L2
Nä
##stre
Einzelfall
##effizi
dargestellten
LWK2
setzt
##edierung
103
##75
osteophytären
1990
Divertikel
Fir
##omedi
Älter
Signalsteigerung
Abdominalorgane
degenerativ
Optim
unterstützen
entgegen
MRSA
##vermehr
##weisung
projiziert
Barr
Gelenken
detek
gesichert
größten
##pelt
##sprung
##ararterien
##italen
entle
zumeist
Ballon
umschriebenen
einheit
Beschreibung
##GA
Suszeptibil
zurückzuführen
##belegung
##orf
##ray
Proc
kosten
##urale
Epis
gesundheit
##altet
fleckige
##pfen
Gefäßmuster
zuver
speziellen
sorg
darunter
##tiellen
##instr
##wart
##geführ
Bauchschmerzen
tub
erhöht
Standardabweichung
##oxy
Mar
##osark
°C
höchsten
Integra
Erstdiagnose
echoarme
##BG
##vi
stattf
DRG
profitieren
##ival
retroc
Fernmetastasen
Aufhellung
##sta
nekro
Aktivitäten
mäßiger
##ulär
zueinander
Spät
PU
postentzünd
##ähne
gewählt
korreliert
axialen
Fleck
Tiere
starker
##skri
Subc
Spät
Altersentsprechende
##ünstigen
Analog
AMS
Risikofaktor
komplexen
Ho
hyperden
##ragen
Arro
##jektions
prospektiven
luft
durchgängig
Fehlstellung
##innt
Unser
atem
Aufhellungen
eingest
Hirnparenchym
onkologischen
geformt
##°C
Gesichtsschädel
berichteten
SM
suprac
Bus
Spondylophyten
lauf
Erste
##rägt
Achs
##gramme
Speicheldrüsen
13353
##iperacillin
##ichtigen
erhebliche
heißt
kleinste
##serien
Präoperative
MI
##ico
##teilungen
Schichten
##öcher
pri
##kyph
Transi
##oglyk
Übersichtsradiographie
Trend
Konseku
##oids
##estibul
bestehende
weiteres
##posi
erhält
Verdickung
##ektor
Thorak
stets
Erschein
Throm
##organisation
eindeutigen
zusätzlichen
dam
Herdbefundes
genaue
Abgangs
gekennzeichnet
##cke
vollständige
Isol
Humeruskopf
101
Zyklen
##ND
##vid
verändert
Puls
Granulozyten
inten
Spezi
autom
psychiatrischen
##eitfaden
##heben
##strategien
erweiterter
verbleibendem
##ogn
##117
thorakolumb
##23
##scher
höhergradiger
ausgegangen
röntgend
##konsum
##wirkt
ausgeprägte
##karinal
genommen
Fora
Siehe
fokal
##mitteln
##rant
##ED
geringem
##bedingten
überlegen
Kopfschmerz
denk
Jod
occipitom
log
Drüsenparenchyms
Größenprogredienz
##denken
leben
Befunden
Publikation
abgrenzbarer
##regelmäß
##itzt
Adenokarzinom
Mitral
Antikoagulation
VEGF
##jenigen
##estruktionen
##legten
Fixateur
Derm
Füllung
näher
anterioren
Scout
Einige
Tätigkeit
folgender
##sensi
##ximab
zer
Ausgedehnte
Externe
##eldinger
##kutan
##änglich
##tivation
wissenschaftliche
ather
vorge
##noid
Algorith
Erfolgs
Persönlichkeits
Fettgewebes
Embolie
quantit
Seldinger
occipitomental
Lungenemphysem
##atorische
Plexus
##schmel
##ota
##EF
##aneurysma
Marklagergliosen
##spiral
sh
##geborene
Lakt
##lam
117
Porttasche
Bestandteil
##achbar
Teils
##erseits
einliegender
##nekrose
CF
##ervo
##asser
Belastungen
einzu
Kindesalter
##ditis
##wär
Gelenkspaltverschmälerung
Herzgröße
beträgt
arteri
hochgradige
##stoffwechsel
Beginnen
altersentsprechendem
diffusionsgew
##schleimhaut
##cep
NaCl
Milli
##wech
Direktor
Ossifikation
beschäf
Narkose
Fre
Kapitel
entwickelten
Extremitäten
##beziehung
Geschw
magna
kontinuierliche
pla
geringeren
okzipital
intraabdomineller
Bewusstsein
Red
##brauch
##rar
Führ
##erhöhung
Verbesser
potenziell
nation
Hilfs
Facharzt
Lapar
TP
##gefahr
arthritischen
##etroffen
Behandlungen
Aortenklappen
##itiden
Implantate
kardiopulmonale
narbig
Pedikel
natürlich
bedeuts
wöch
128
Gewalt
mesenterialen
##rennt
##IPS
konventionell
##indi
Afterload
ödem
erfassen
Größ
##olen
Dienst
##oideum
infekti
Magnetresonanztomographie
person
betrifft
Vag
##geht
106
besprochen
##andem
Deform
##gewebes
neurologische
Stell
##41
Senk
Meninge
Mening
Mehrzeilenspiral
Inhomogen
##neur
##gebed
statistische
Thalamus
Halswirbelsäule
##ndesm
UrinUntersuchungsauftrag
Oberk
femoris
##äßigen
Tenden
erhöhter
##ringt
getes
Sicherung
Hemit
##protokoll
spitzwinklige
##stenosen
Datenlage
Manifestationen
überwiegend
detaill
##spiele
Amer
Sprunggelenk
Gerade
theore
Pathogenese
Netzhaut
##tium
loc
Therapeuten
##geschichte
##iene
bedeuten
##entfernung
##impression
##unsten
##ozytose
##itionen
Zement
interstitielle
##etter
frühzeitig
##population
##atose
pass
##wechsell
gelingt
sorgfäl
##ates
##ystische
##fertigt
Vorhand
##schwielen
Adap
Fixierung
unbek
##inenz
Seitenventrikels
##zeitiger
zerebrale
Sen
Abteilung
Kurzbefund
Wh
##gangener
##bchen
##ulärer
##programm
Euro
##biquit
MIP
fixiert
##py
##Cef
dex
Anatomie
Sequ
Les
Tatsache
##eut
##98
interne
beziehungs
Kompetenz
##port
identifizieren
Register
Mittelgesichts
Aneurysmaanhalt
##viation
##ziert
Pancre
Nierenzell
RT
aff
##felder
Jahrzeh
Zusammenhänge
Transport
unterstützt
Abgrenzung
Aufbau
Priv
##gerecht
##reh
Glas
subt
zementi
##okortik
Inkrementaltechnik
wegweisen
##ktiv
Ärzt
##fachen
##uchen
non
Familiäre
caud
Segmentarterien
Verlegung
bisherigen
nativen
Spondylo
##lastung
##stanz
Lamin
dest
C7
Osteotomie
unkompliz
##pankre
##skon
Fusion
som
##urf
subkapsulär
113
Adenom
homogener
Sing
Angrenz
Acetabulum
krani
Stoffwechsell
versucht
##ité
durchzuführen
##hers
##produktion
##medizinische
histologischen
Komorbid
Tet
##haltigen
Entlassung
##tikum
top
##weichungen
Europa
ischäm
unauffällig
herange
PP
multipler
Affektion
##ager
Landes
Bio
geprüft
daran
Dom
ACC
beinhaltet
##heim
##annung
##Hz
##histochem
ziel
##rhythm
Kolonrahmen
oftmals
Verkehrs
freien
Abbruch
psychotherapeu
ventrale
obst
##vertikulitis
Dann
##risch
Staphyl
##ämien
allgemeine
inflammator
##48
deu
##uer
##HE
Verschattungen
unzureichen
Ausprägung
Exspiration
echon
##OD
Wil
Prüfung
Osteod
##gefühl
##oadjuv
##vision
assoziierte
GA
##Pro
Beobachtung
Schwierigkeiten
##verdickung
##Tc
Wichtung
Asymmetrie
##mg
##gegangener
##reiz
niedrigen
erhöhte
Stoffwechsellage
##kts
Derz
Bohrloch
##lauben
##idin
Infarktdemarkierung
Ersatz
Hilusstrukturen
##üfung
anders
Intervall
##phagen
Endpunkt
beschriebene
Schrankenstörung
vorbek
dritten
vereinzelt
##opathien
inkl
##techn
ergänzen
auffä
Konsens
Flüssigkeits
Nun
tox
Spezielle
Pulmo
##geminder
Sim
##93
hepatischen
frühe
##ian
Oropharynx
##regeln
ECM
##therapeu
Ischämie
##inem
Charité
Natri
Ausgeprä
Kooperation
HU
Umwelt
Knochenaspekt
##aust
##tä
##ionen
##tima
Pleurakuppen
##laukom
##oleranz
gestaut
Nahe
Hi
Abdomenübersicht
Harnblasen
Spontan
muskul
Kris
##verein
##oparietal
mitgegeben
erwor
##verteb
##zend
##kret
Gas
Kammer
internationalen
##rium
##information
SIR
##formationen
##weil
Malle
gebracht
zufrieden
##aque
##arzinose
wachsen
842
##arius
übertragen
Bericht
Vorw
Rie
geklärt
ambulante
Überprüfung
orientieren
beziehungsweise
sekundären
##manifestation
Konsequenzen
Einschränkung
##kreis
operativ
analog
##itiert
##oiditis
Änderung
herangezogen
tiefer
##ronen
Enzephal
##leistung
##sequ
ausgeprägt
Kapill
Faden
##ossa
Hämatothorax
##temperatur
GE
aufgeklärt
Lokalisationen
##gredienten
Oberflächen
##greifende
Bur
Proj
abgeb
##innung
107
##ensein
##osum
Kreatinin
##sub
Syndesm
endokrin
Alveol
Öst
pulmonalis
Leichte
##51
angepasst
##pla
asymptom
EU
##odurch
Drüsenparenchym
Kontamination
##ndet
EIA
Kun
##stärke
##ervoir
möglicher
##rontal
Entsprechend
Kontrastmittelaufnahme
Spinalkanals
Noch
##stunde
Wandverdickungen
optimale
Gramfärbung
ante
Mittels
hämodynamisch
anstei
Zyklus
falls
physiologische
TAVI
initiale
Ple
##wachst
##TG
Studienteil
##43
##sistenz
##zesse
##lösen
umfang
##ährt
Blutzu
hyperintens
123
##elch
##harn
##atöse
Durchgängigkeit
Detektion
##zig
##odes
Morphologie
##uffer
verstehen
##antik
##astol
PTA
##dig
sten
##tigungs
Öff
##dys
Chond
grü
Hinterkantenalign
atypische
##schla
Hypothese
Weiterbildung
##chmal
RNA
Konf
##förmigen
Beginnende
##plementi
##parese
fein
PEG
Schon
Hipp
erneuten
Supp
##kranken
verabreicht
alte
Chr
Syndroms
spitz
##zunahme
intest
Begleiter
parieto
Dysplasie
##rechte
Kei
setzen
FF
nötig
Schlankes
##OR
Interess
##tierende
Tibiap
##exposition
##oglobulin
##53
Soc
0312
Cob
AIE
Schwächungskorrektur
Weichteilplus
##bindung
vielfäl
Tuberkulose
##uh
Emissions
##omorph
Trag
##agestörung
schwerwiegen
##bereiche
##ansammlung
##produz
Harnleiter
##nehmende
Sup
Disse
##odon
hätte
unauffälligem
geworden
Müt
rechtsseitigen
##af
reaktionslose
Gerinn
seltenen
miteinander
pa
##rill
fronto
Bilddaten
GD
##schrauben
brauch
zunehmenden
kardiopulmonalen
Rücksprache
höhergradig
##igil
AA
Lob
Innerhalb
Mehrzahl
##orption
Übersichts
Artefakt
stationäre
PSMA
Krankheitsbild
##ipro
subak
diesbe
wollen
kleineren
##perforation
##othek
##rang
Produktion
##steigerungen
evaluiert
##laufen
Ätiologie
Antag
jedes
##zeptanz
Darmgasüberlagerung
stren
Hochrisik
Arg
Aufklärungsbogen
Induktion
Nahezu
##bevölkerung
kombiniert
##gebungs
Übereinstimmung
##ms
ms
abger
##anti
behandeln
Fraglich
wodurch
basaler
##istend
##opäd
publiziert
##expression
Nierenhilus
##konzentration
spezifischer
hängt
301
keinem
Vorhandensein
Rippenserien
zweidimensionalen
Wird
##lektasen
Infarktfrühzeichen
##II
Migrä
kompens
##blen
##entamicin
1994
fällt
Spule
verdickt
bewusst
Mapping
retrograde
##67
Accup
Zusammenfassend
##dnis
tragen
vergangen
kamen
Besonderheiten
Portsystems
S4
5F
##entes
Gesichtsschädels
##ating
5mm
linksseitigen
intrasp
Kell
festzustellen
Anamnestisch
vorhandenen
AZ
Lyse
Fein
Tumorzellen
##arma
patienten
##mess
Verlaufskontrollen
##onaler
##uar
##glomer
##reiben
Infarktes
ähnliche
Demarkierung
Ampl
Überwachung
##abfall
Fähigkeit
hauptsächlich
Schal
Lufteinschlüssen
##openie
##rhythmus
PK
Monitoring
größte
Steine
Extremitäten
abgrenzen
##konfiguration
Ferner
##uck
Epidemi
##lötz
##injektion
##elot
korrespond
Myelon
Tar
##kyl
190
Leberhilus
disease
denkbar
Hohl
Schizop
##gelö
Afterloading
angemessen
##tumoren
maxillares
pelvin
DC
intrapulmonaler
übrigen
Grenzen
##unnel
Schaden
##spende
Fossa
Lediglich
knöcher
infraren
##ützen
##VD
Accupaque
##vent
Glenoid
geringes
##stellation
##leber
rekt
sonographischer
Compliance
Markierung
ausgedehnte
Kategorien
profession
altersentsprechender
plötz
vollständige
entwickelte
aggres
kurzer
Multisegmentale
empir
Urol
##azep
Konflik
##zusetzen
mikroangiopath
Nierenversagen
indirekten
Sprache
epidemi
##otischer
##kardial
##greifen
##alte
##tigungen
kranialen
##schritte
##obenen
##ologisches
Karzinome
##lös
erleich
Software
Gedächtnis
Bindung
verhindert
##ganges
##schäden
liefer
eingeschränkter
HLA
Neoplasie
Tibiaplate
##hre
Tastbefund
##phisch
ursprün
Krankenkassen
##igilanz
PM
##deutet
erhöhter
apical
entzündlicher
##ithen
vol
##ift
Interlob
hohes
tibialis
Breit
akzentuierter
Phlebol
##oberfläche
##otox
wissen
Stichproben
intraren
160
Komorbiditäten
Synkop
Schilddrüsenlappens
benötigt
Hersteller
##isieren
Peric
Akro
Länge
##meld
##allus
Hyster
coli
##tifikation
Entzündungs
unseren
geforder
Ambulanz
##jug
##kern
pathologisches
einliegende
Talus
##thyreose
Septum
##bedürf
Ethik
beteiligten
Variante
##findung
poly
TM
Desinfektion
Nekrose
##ressiva
Komponenten
prinzip
##lebens
spezi
evtl
##ulieren
##weiß
assoziierten
long
##ämlich
Aufmerksamkeit
Off
##gesetzten
Mortal
Emphysemaspekt
##poten
umgebenden
AU
Lokalisationsscan
BET
Gu
Koronararterien
bitten
retroperitonealen
anaerobGeb
##bleib
Indik
zeitlichen
sekundäre
Lokalisationsscans
##platin
hypointen
Jejun
Wen
verstärkt
Mio
Fähigkeiten
##tr
##ostri
Strategien
##befinden
altersentsprechende
intern
Harnstauung
sing
##ykardie
##pul
cran
errech
ernie
##aste
Myelons
##versprech
Leer
Symph
hormonelle
iv
Gland
##ografisch
108
Fixation
##train
Definitionen
Sekundär
131
amer
##Mikroskop
Wort
sitzend
hepatische
Ante
zystoide
ECMO
Wichtig
##wieweit
tiefe
Dün
Neuro
Makrophagen
Jugendliche
generell
subjektiven
dün
##emente
Fragestellungen
Alte
ko
##artig
bringen
nämlich
##folgend
sofort
wes
median
##uroxim
BPH
reichen
##szess
##ochemotherapie
verursachen
##omien
IE
bestätigen
gelenk
wichtigen
bekommen
GF
##gbarkeit
geringgradige
Amyl
bestimmen
vö
erwogen
##esch
##ozele
##OM
##osinoph
freundlichen
Mäßiggradige
Bereiche
drin
##ständig
sofern
##ziele
Januar
##bandes
einhergehen
amerikan
Organisation
##tention
Femurkopf
pul
entscheidende
##ifikation
weite
enthält
##zinose
Clipmaterial
##knochen
##zereb
Mensch
media
Defizite
##buch
Beschwerde
FE
##ibronch
##indlichen
Lebensalter
operativer
präoperativen
kurze
diabe
Feld
##kyphose
Darmwand
##kontrastierung
Anhand
männlichen
Klappen
Gefäßveränderungen
einliegend
Sarkoidose
hochauflösen
##schwanz
frü
##malig
welchen
krankheits
##iprofloxacin
resistent
Mikron
##retention
Flexi
Schraube
festgelegt
bildet
Cardi
##aufent
Colitis
Radiologie
##förmig
Law
laborchem
BE
Imm
Ramus
EEG
regelmäßige
erfüllt
##esterin
##artikuläre
##hunder
mediane
kardiovaskulären
neoadjuv
CS
miterfasst
Mai
##LS
##nahen
##typen
##its
Sollte
Zulassung
oralen
##drainagen
Retrol
kontrollierten
##ialer
zugeordnet
Doch
Zyst
Genehm
Blas
Urothel
erzielen
##blich
Kontrastmittels
inj
Mag
##einheit
Blutentnahme
Jun
##elongation
Ligament
##dissektion
Tele
##hyd
befinden
AIC
##feldern
intraperitoneale
Stufe
kommun
jährige
AML
##aktivierung
unbedingt
##atic
Kontraindikationen
Hemmung
Hausarzt
gehalten
wohn
Schultergelenkes
antibio
Portnadel
spontan
##werts
Neuroforamina
Apopt
##arben
Phalangen
Pathologien
Osteolyse
retrospektiven
##nä
##liegenden
##ged
##ularen
basiert
Osteopener
Migräne
Netzwerk
Org
Fest
##radik
##hyp
Vermehr
##ros
Retropatell
Übelkeit
sterilen
tun
Färbung
111
##elekt
Kohorte
korrig
Forscher
größenregredient
evidenz
ide
Rechter
Vorfuß
##schluß
Grü
##praxis
Sekundär
−0
##NG
flächige
Hod
##utet
##lymph
Eink
##hor
##odense
##ight
geplanten
##olysen
gesteigerte
##lea
Interessen
##masch
Konstanter
pectoral
polymorpher
echonormal
ehemaligen
##ordin
Schei
##oto
inguinalen
Derzeit
Fibroadenom
verlagert
prophylak
##onzentra
Pouch
##profil
##prophylaxe
##veränderung
Diskret
##ünstig
extrakranie
##spinatus
zentriert
Fokussuche
Osteosynthes
by
##cle
##basierten
arbeiten
##oregion
Meh
##neg
jod
kardiovaskuläre
Oberbauches
dextra
Sigmadivertikulose
Ansprech
##iszenz
##eichend
Annahme
initialen
erschwert
malignomsuspekten
getroffen
vorbeschriebenen
Verfahrens
##ilus
##rid
mutmaß
multiplanaren
vermittelt
Winkelerguss
Mam
##rence
##zinter
kura
Geräte
Körpergewicht
angestre
##obacter
Aufnahmetechnik
Sulcusrelief
##demonstration
##ylor
HCV
Sec
schilddrüsen
Kieferköpfchen
Schlussfolgerungen
vorangegangener
Patientenkollektiv
dys
morgen
präoperative
Dopamin
##hafter
##tentoriellen
##höhle
Abk
##zente
##dlich
##nehmern
##BP
postoperativer
##fasern
Hemip
##Mikroskopischer
einzige
Balk
112
##metabol
solcher
Punkten
##karzinome
Ring
Horm
Kanal
Jungen
horizont
##probe
##träglichkeit
Druckschmerz
##cy
engl
Embry
##ktes
Dass
Oberkiefer
Atyp
Akrooste
Stabilität
adäquate
Gastroenter
Schlüssel
##ördert
medikamentösen
##rennung
kolleg
Nierenarterienstenose
Synt
##ots
suffizi
Ess
ableitenden
##personal
physiologischen
Prom
##HF
Phalanx
Deta
Som
Medizinische
Carina
Thromboph
##DE
##iety
Hautnaht
##umor
Annähernd
##inetik
##iliitis
kürzlich
typisch
SF
##metastas
Leiden
letzter
territoriale
zunächst
befund
einbezogen
##arinal
##rund
Gleichzeitig
Let
Radiochemotherapie
Check
##ulierung
Essen
Szintigramm
Ureth
##okon
idi
##ulierte
Lokalisations
patients
charakter
technischen
Modi
mediale
Binnenstruktur
##tchen
##riert
Hyperthyreose
##swert
publizierten
simult
Natur
##olisthesis
##arese
##BM
##ualität
KBE
Katheterlage
##osierte
##gelöste
Abgrenz
##ystektomie
##irns
##ziel
Skalen
kontrolliert
paravertebral
##rechter
Vereinzelte
nutzen
erheblichen
##aryng
tenden
Grüßen
Mehrskler
##ise
erzeu
moderate
##theit
##pflicht
Hypertension
Hau
Träger
##anze
mo
##desinfektion
größte
Beatmungs
##omatose
app
##phthalm
Konfiden
##indern
STA
Bandscheibenvor
kräftige
Clin
##olip
Hodg
belast
Kohorten
DJ
ventrik
##teils
##ünst
Okklusion
##länge
Split
entleert
medialis
##schädigung
räum
##HL
entzündlichen
##pati
##konzept
fü
Minimal
Infusion
Pankreasschwanz
kolorekt
umge
Universitätsklinik
Mat
99mTc
seitens
##fix
Erhalt
Mikroblutungen
##wies
##kan
ging
##lings
Natrium
##alyse
maß
##pforte
##ements
##infiltration
Lipomatöse
wiederholt
Akzeptanz
ausger
Fokale
verstanden
##inflammator
Kunst
hochauflösender
vergangenen
Millimeter
Hamburg
##gut
Wahrnehmung
Vene
prädik
benachbar
Entfal
Humerusfraktur
##iform
##intensität
##nerv
##anästhesie
##mansch
Rechtsherz
invasiv
##spalten
µm
Ergän
überw
Aortenelongation
Zirkul
Kellgren
pubis
regelrechten
KV
##ines
##strahlung
Durchschnitts
##ängerung
blu
Kochsalz
kontrollierte
##iums
Narb
Quan
Linker
arter
dürfen
Adren
Hüftgelenke
Pfannen
Sett
trifft
systematische
Maus
PV
supp
Fab
Betroffene
Brustkrebs
daß
##ografische
Randwinkelerguss
##dese
##kompeten
##adem
##OT
weiblichen
Hypox
SWI
Kriterium
Vigilanz
Rehabilitations
human
Hodgkin
##rengung
Krankheitsverlauf
Kop
Pall
Übr
##aneben
##ii
Emissionsmessung
produz
histopath
##otisch
Flow
##axi
##ovale
Autonomie
Gesundheitswesen
##lauslö
Gesamtüberleben
Instrumente
##umfang
Laborparameter
Befunddemonstration
Traceranreicherung
vergleichbare
##äuren
Thyreoglobulin
Umfeld
liqu
Gerinnungs
##zonen
##atter
##kompression
miterfasste
randomisiert
Instabilität
##cor
Harmon
Zervik
kortikalen
beruht
Aktuelle
##raktur
posterioren
Wohlbefinden
##gesie
##dural
Hiatus
halb
funktionell
gezielte
##nsch
##usus
raumfordernde
eventuell
Trainings
DPD
uln
##auert
Vaskulitis
##oxazol
##tität
Kallus
Pathologisch
##ohumer
##engt
Beschäf
typico
##utroph
Niveau
Integration
Diar
##ursache
Tinn
are
Wirkstoff
##klärungs
Chemo
Partiell
klare
##oblastom
liefern
##rakt
hinweisen
##inkelt
Hochauf
##hel
Mikroskopie
unvoll
##YPE
Versuchs
Transition
klas
R0
WID
multifok
notwendigen
##weiter
rheum
palli
orthogra
##indlichkeit
computer
##ansätze
distend
subchondraler
##the
Architektur
##hydro
Coronar
##azität
##verständnis
##alseitig
##ieten
diffic
##limin
Bal
Niedrig
##rep
doppel
Zirrhose
##iten
zwischenzeitlich
auss
Knochens
Widerstand
Delir
##ematerial
Leberläsion
DOCT
effektive
Sexual
Online
Schwangeren
Nabel
einfache
vorkommen
Instill
europäischen
Polym
##oment
##sept
Genehmigung
Aufwand
Neuanlage
Äng
Bewegungsartefakten
therapie
Auft
##bedroh
Immunsuppression
##ophag
ältere
Shun
Schnittbild
aort
täglichen
hypertroph
Methyl
Fragebögen
treffen
##ko
wirklich
Österreich
##här
Altersentsprechend
Wegen
##ondylus
##ife
intermediär
##mechanismus
rout
##norm
Ant
auszugehen
Profil
##inase
Sakroiliitis
##gerechter
WIDTH
DOCTYPE
echonormales
Abweichung
ausgeprägt
##entwick
##aktiven
asymmetr
##mechanismen
##blichkeit
##kelch
RV
##atorischen
Gips
obstruk
Chirurgen
##abhän
ambulant
Beweis
##osteron
wären
Nikotin
globale
Lawrence
##ulierten
Merke
hochgradiger
ergänzender
Tam
##77
pelvine
Obstruktion
Gewebes
##geschehen
##way
Vater
späteren
##jus
Later
Micro
##stoffen
SGB
##vei
sinistra
atlant
blieb
konsequ
Grundsätzlich
Glukokortik
##barer
Förderung
Malleolus
komplexe
S5
FAST
Konfidenzinter
##auflagerungen
Foramen
Rhin
##ask
genetischen
##stest
dichtes
mikrobi
##maxim
##erologie
Schließ
Statistik
##TI
##achter
Maße
Entscheidungen
##klappe
##achts
menschlichen
##ging
##tral
Verw
##verbleib
Antworten
##zufriedenheit
##opsych
langfristig
##oidektomie
BG
Anämie
gewertet
palm
Buscop
##ous
Präparate
Nervus
Schizophr
prop
DA
Spalt
Sinter
Still
109
TI
##stufen
##seitiger
oberfläch
masch
ausgedehnten
Sm
aufwiesen
##utation
Lebenss
##kontusion
stattgehabter
Ling
beweg
Anzeichen
subjektive
Iliak
##produkte
Serologie
niedergelassen
Akt
defini
##males
##psil
Einfl
sonographischen
##häl
intermit
erwähnt
rechtz
Opi
kollegialen
Intensität
Hemihep
Kleines
##gebnisse
Unterscheidung
##fie
1993
SDS
Supratentoriell
##hnliche
Calcaneus
neuro
##kus
ausges
deutsche
vorbestehen
UB
Caud
Transkri
##pte
##zusehen
##gesellschaften
##osiert
##zieht
Schilddrüsenwerte
Distanz
Vorhers
ossär
##führen
Retroperitoneale
##sehne
Jahrhunder
prospektive
Spongi
##arti
Diabe
aufgetretenes
##losen
Risikos
Mittelwerte
##riften
##geführ
134
Phlebolithen
besitzt
mittig
psychischer
##essment
##wertungen
Granulom
lot
postentzündlich
standardisierten
##ces
##ocain
##atarsale
meine
##uralen
##gefäße
##straße
##quad
##regulation
axis
Vorbefunde
Drogen
Hoff
intraoperativ
zahn
##wertige
##omotor
##kalib
##kum
axialer
Mammographische
Nagel
Pepti
Myokards
Wissens
Buscopan
##eitigen
1992
##freiheit
Gesamtvolumen
Einrichtung
European
##gehör
messender
##88
operiert
Anästhes
Perfusionsaus
vorgesehen
notwendige
zeitgleich
wahrgenommen
adjuvante
Untersucher
sacrum
Infl
betreffen
##spw
##züglich
Pericarderguss
Befall
saph
Akroosteolysen
HB
Nekro
geehrte
niedrige
##ystelektase
##ögliche
Gefü
Hirnvolumen
paramedian
Patientengruppe
Onkologie
Nierentransplantation
Jährigen
##defiz
##gebiete
##anke
Rhy
Hypophysen
beginnendes
https
Inhal
nodosa
prinzipiell
Haft
Leistungsfähigkeit
Caps
##EP
Harnwegs
Senkung
Kran
Resektionshöhle
klassifiz
difficile
gebildet
##hormon
Änderungen
##verl
besitzen
imponieren
Gyrus
gewinkelt
eingeführt
beginnt
##rot
Vertra
Entwicklungen
Gefügestörung
Deckplattenimpression
Hemithorax
320
Gale
##funktions
##rast
ständ
Homogene
Viren
##läsionen
Schne
früheren
170
geehrter
Funktionsaufnahmen
sozial
häufige
NF
##lla
##isierter
Raume
Psycho
##iliakal
Arrosion
Gewichtsverlust
triphasisch
Erwer
##stich
Imbibierung
foll
##sporn
Zuordnung
##ofrontal
Richtlinien
Okt
##ochrom
600
Körperober
Lappenspalt
Testung
##enswert
Orthogra
##produkt
depressiven
Signalanhebung
##gigen
nahmen
##orth
Anfall
Krampf
##leunigung
Scham
Hysterektomie
##ourn
konzentr
Übertragung
Schema
vorbeschriebene
sigm
acht
##ponse
Ersch
mussten
Komp
Glandula
Echokardi
Prednis
tau
##erne
Nase
lokalisiert
achten
Serien
##deme
erlä
eigentlich
Tiefe
##rimoxazol
Prominente
##echo
##ächlichen
Fragmente
##ortet
##ymptomatik
Weitestgehend
##anom
Option
Anpassung
##metastasierung
##molek
völlig
unregelm
unspezifisch
##team
##bronchus
ATA
##ardial
frühzeitige
Platte
##ott
irreg
Antidep
Diffusionsrestriktionen
Materialien
mediastinaler
GI
Cortex
Raumebenen
0D
Instillation
Flüssigkeit
##ogruppe
Phänomen
Myokardinfarkt
##iqu
##physi
gewährleisten
CABG
Kr
##meniskus
##uge
wechsel
unklare
Schizophrenie
Rosen
##abschnitten
herz
Bauchlage
##spektrum
wohnh
##57
trache
Kräf
##stoß
Cyc
##einfluss
stationär
zugunsten
Bronchie
angrenzender
Bezüglich
L3
Heb
##BLIC
IN
erf
therapier
##krement
##inken
sogenannte
##ozierte
##temporal
##morph
kari
Viv
Echo
Raucher
mRNA
ungew
Digitus
radik
lebensbedroh
seitengleiche
sieben
ausgeprägten
CBF
##ährung
Quantifizierung
eben
##ühl
loco
5T
Experi
inguinale
##mmodul
##32
FU
##disl
Tur
C6
Sonografie
makro
##odellen
##ünstiger
verlegt
##gemäß
Nierenbeckenkelch
Subluxation
##ahnen
Beratungs
Tubulus
spät
Mittelstrahlurin
##sfraktur
vorab
##hältnisse
Östrogen
International
bspw
dien
##ärzten
abdomineller
öffent
Kardiomy
##malen
##ubiert
abgeschlossen
geschlech
Einbeziehung
Recht
nachvoll
##ipenem
Nuklidanreicherung
Kyphoplastie
nachzu
##inderung
Wirbelkörperfraktur
##oplastische
Limit
PF
##fleck
retrospektiv
getestet
Deckplatte
änder
Auffälligkeiten
##je
Erstellung
psycho
##ständigen
Leiter
charakterisiert
To
konnek
sozio
##dynam
##eitete
Resultate
##lebt
besonderen
Ba
Fvol
weiterführ
subkortik
Hämatoms
Frakturzeichen
org
Cis
##atmung
##mmer
minimaler
pädiat
0001
##itation
Inspirations
brachiocephalica
Diarrh
Rippenserienfraktur
Inhalt
Chi
##eot
Nachbeobacht
High
intrazereb
##otoper
##vermehrung
definierten
Hinsichtlich
erstellt
Versagen
PUBLIC
Nutz
3196
AB
##ungszeit
Übelkeit
Hol
Fersen
Aufhär
OCT
Vern
ökonom
##erg
##ördern
##scheid
##lösung
##maßregeln
po
Erheb
##erhebung
handelte
Konventionelle
Detail
Wohn
viell
entzündliche
Fläch
##spulen
##analy
##karzinomen
Traglinie
Hz
##angiographie
Blutzucker
##fragmentäre
##rpation
vielleicht
Übergang
LGZ
Lungenanteilen
aufgel
vergleichbaren
321
Signalanhebungen
tä
Lebenser
##aster
erhaltener
##hermie
##ney
pas
##wasser
führend
Duodenum
Hochaufgelöste
##äusen
##eiträ
##reifig
##äne
Sekundärrekonstruktionen
Atemwegs
##hten
##verdächtigen
##eiteten
Antibi
Tumorman
Cell
##utt
Erbitte
##ostridium
##ofern
##eck
tot
Initiale
Beckenachse
2018Klinikum
glomer
Coron
gegenwär
##omes
dorsolateral
eingebrachte
Präsen
schließt
Potenzial
Verhaltensmaßregeln
##ständige
neues
stellten
priv
maskiert
Exzision
Stammzell
##lebitis
2018Labor
Invas
typischerweise
Erwachsenenalter
##81
voneinander
erwiesen
gelegt
##onk
AKE
fehlt
##funktionen
vergrößertes
Pelot
Extremität
IFN
116
Basel
##resid
##phalanx
wandverdick
Hirnvolumenminderung
dah
##Serologie
##leistungen
Hämat
resp
plas
NM
Tief
##cyclin
Positiv
Optimierung
Zelle
verklein
subjektiv
komplikationslosem
hypodensen
telefonisch
##skala
##ärztliche
Wirbelsäule
längere
vas
elektron
veröffentlicht
granul
Einw
ET
##Prof
##zentren
caudalen
ipsil
koron
##heimer
##front
Aufhärtungs
Chirurg
##sekret
Veröffentlich
jüngeren
Untersuchungsauftrag
##aufbau
##emen
Flußmessung
epid
Andererseits
##schwankungen
inhib
Restharn
Zahnstatus
##prävention
durchgeführte
Peripher
##mpfung
##teilungs
##phasen
Erfolgreich
Infektparameter
##CD
Ausbreitung
Sekunden
##chens
Exazerb
Atemwege
##pfl
Hypointensitäten
##heilkunde
##neumothorax
möchte
anz
Dorsale
arthritische
Tinnitus
jährlich
Beispiele
erneu
Strategie
Rettungsdienst
##oxarthrose
Druckverband
vereinbart
Identifikation
Aktivität
##assoziierte
##seff
feststellen
Schilddrüsenparameter
thorakaler
Nachteile
Abdomensonogramm
resultiert
Suszeptibilitäts
BM
C2
Erklärung
Subgruppen
Harnblas
Achsengerechte
routinem
sogenannten
erhobenen
##ängs
##hinweis
##GFR
Unterlappens
Morgen
Befundes
##alisations
##istische
Grenze
veran
Fenster
Sekretion
Mehrspeicherung
kontrastmitte
##kante
Intima
mesenterica
UK
differenzial
STIR
restrik
##chant
manuelle
Flau
fer
Steriler
saphena
##endesign
##deut
sternförmiger
Nuklear
Ansicht
Leberzyste
##rinde
##rischer
Hyperkyphose
adip
körperlicher
Pelottierung
##kontakt
Handwurzel
##abhängige
floride
tomographisch
Ink
##embolisation
sup
anerk
##dukt
adap
gleiche
prü
suprakarinal
##ftung
##hilf
verg
hom
Leeraufnahme
gesellschaft
Pilze
##fraktion
##ergüsse
geeigneten
intensivierten
ließen
Mittellinie
TT
Pleurakuppenschwielen
##gesellschaft
Spiel
##skopisch
untersuchte
Toxin
bevorzugt
##knü
##ally
Care
rück
Hemiparese
##icus
Rese
##ammernaht
Krankenhäuser
gelegentlich
Impul
unveränder
cervical
wünsch
immunsupp
unzureichend
Ablatio
Portkathetersystem
Verletzungs
##serkrankungen
Hyperplasie
vergleichen
zeich
Gebrauch
iliacal
protein
Regressions
begrenzten
##obe
Verkehrsunfall
##ican
Ableitung
Erreichen
##own
Instabilität
##oglobin
prospektiv
Osteophyten
Gefühl
Konzepte
messenden
Gerät
##oplastik
##draht
absolute
##nimmt
flächig
Transfer
occipitofrontal
##nap
##ondy
Blutkulturflasche
periradik
Therapieoptionen
Verdachts
auslösen
Verminderung
##97
Heidel
deg
Motor
##okl
##ützt
Umsch
Zugangsweg
Unterpol
euthyre
Kelch
Abgangsstenose
##einbruch
technische
eingenommen
Respirator
##bactam
##rän
##andemie
KR
Krankenhäusern
vertra
##zeptoren
##ephritis
Peritrast
fallen
Originale
##atives
Einheit
Vergangen
Markke
Heterogen
##erfolg
gelang
hämat
CMV
##ages
0310
##rektomie
Übergangs
Glieder
##rotation
Primarius
##BA
Ohne
Peritonealk
##leuk
##vergrößerung
Prozed
Aussagekraft
##lavikula
##ästhe
angehoben
Hyperdens
ilium
Größenprogrediente
##essor
denken
interenter
##ierbare
Charakteristika
Defektareal
praktisch
##arpale
##digung
##ureth
##obronch
Pancreas
Pulmon
Beweglichkeit
periventrikulär
partielle
ile
sagen
Parametern
Cobb
135
erlauben
Femurs
Fremdbilder
lokoregion
Radiotherapie
Angehörige
##gül
blut
##prolaps
trat
informiert
Kerat
##wissen
dd
mechanische
##parti
##bungs
Nan
präklin
Flüssigkeitsverhalt
Rhiz
Wahlund
gezielt
Präpara
Hygr
regelhaft
beginnend
BRCA
Gelenkerguss
Abgrenzbarkeit
Zufriedenheit
##ktasie
beeinträchtigt
Spannungs
Unsere
Blockade
##ops
retrocru
##85
##rn
##omedull
##ächliche
##ksamkeits
manifes
##ancen
S46
dislozierter
wert
Erwachsene
Beine
Sulbactam
risk
Lungenstruktur
Alb
##aort
Fissur
Vivantes
belassen
##ometrische
thorakolumbalen
##arme
##leerung
präven
subkutanen
##umenten
Fibrin
##regionen
NE
noduläre
manchmal
##ächste
leichten
Scale
BK
Fachgesellschaften
ergänzt
Selten
##geführten
##beitet
konsolidierte
erhielt
BWK12
##trah
Mandib
##OG
Hypothyre
Inhalte
##ungsprozess
##einschränk
##eres
vestibul
Society
##weitung
2x
SR
##upun
atypischen
##größen
pun
Suche
Saug
Sehne
##ronin
Vorsorge
Sonogramm
Kardiomegalie
aufzu
ausschließ
##issozi
##gezogen
Fundus
Baden
Transfusion
Markt
Nebensch
##tsatz
Ro
spezifisch
##entielle
enter
Thymus
internen
##reuung
verfügbaren
weshalb
multizentr
pflegel
überprü
Komprim
Abstrich
Konflu
Papill
##förderung
##orische
prominente
inner
##atern
Pathophysi
geeignete
##oidale
Zunächst
Hämatom
hochpar
schmaler
Herausforderungen
Koxarthrose
Rachen
##ential
Hemihepatektomie
##ptions
##IST
Inflamm
Reha
##abhängig
akzep
Schrumpfnieren
##sorption
Proliferation
Letalität
Nativmaterial
Monotherapie
Dez
arthritisches
persönlichen
Inhibitor
##venöser
##KO
sprach
punktförmige
OF
Kongress
##dün
Acet
intrapulmonalen
pN
##culum
##pil
##symptomatik
##entsprechend
iP
Genotyp
tendenziell
spont
##kontinenz
##denten
Generation
Anwendungs
##rantär
pflegeleitfaden
Vergangenheit
verdickten
Kolleg
dringend
biphasisch
##otherapeuten
Erfolgreiche
##lehnung
poli
entgehen
Lagerung
mechanischen
##riebs
gesetzlichen
angewandt
##iver
Myelom
##größerung
##ressive
American
##isti
orthotoper
Alternativen
vierter
##angt
##ogenes
erwachsen
verzö
langfristigen
Prostatakarzinoms
##ägung
##ilder
##wachstum
gramneg
##schriften
##flüss
##plementierung
Weiterentwicklung
supratentoriell
Übergewicht
call
dynamische
Verst
glen
beziehen
##hör
vergleichsweise
Wirbelsäulenspule
RP
narbigen
Dünndarm
Heilung
höchste
vermutet
Markkegeln
Gemein
##schuss
##thyronin
depressive
##ANTIBIOGRAMM
erar
multimod
Log
##LP
##wartung
Gamm
##dent
##komplikationen
gesunde
##iles
Front
Wür
interpretiert
Notarzt
inhalt
Beinvenenthrombose
Oberpol
Opio
SH
##unregelmäß
##herstellung
progredienten
Sternum
cervic
supraa
Ausbildungs
geringgradig
##istischen
April
Total
Herzschatten
erreichten
##begrenz
Austausch
Degenerationen
hypot
Wunde
Put
Trä
##quadrantär
##dge
##sstu
Cer
Epiph
##präpara
Mäusen
##behalten
gewährleistet
##nagel
##zeichnis
Work
calc
Prak
##berlin
Ovarialkarzinom
gerne
Regulation
##fektion
Weltgesundheits
##prost
Bestrahl
eingebrachter
zirk
belasten
Trijod
Dura
##streckig
fördern
##involution
Länder
##ächen
Schü
Beeinträchtigungen
Fetth
sterile
##änden
maximum
leider
##rachen
##onitis
##vertebraler
Thrombophlebitis
Regredienter
##IF
konturbilden
Adne
Joch
spinale
Zweitkarzinom
epithel
Carotis
Transplantatniere
Modelle
instabil
radiologischen
eröff
##training
enger
weiblich
schließen
##87
fe
massiv
##stellungs
auswär
ACG
eingebl
Ablation
bilob
Algorithmus
legen
desto
##mp
##olf
Qualitätssicherung
##zinti
pre
Hypoglyk
künst
bestehender
sen
Goldstandard
dro
##gefunden
##etrie
interquadrantär
modernen
Trijodthyronin
990
zartwand
gemeinsame
Gynäk
Gegenseite
Hypothyreose
##lässig
Weltgesundheitsorganisation
Drucks
damals
##verschlechterung
Verkalkungs
Apothek
TL
Poli
Gelenkfläche
demnach
Peritonealkarzinose
Meinung
Gegenstand
Mehrsklerosierung
##steine
molekular
Knöchern
##ustrie
Fallzahl
Hautdesinfektion
sec
##ökonom
Rauchen
Altersgruppe
nahm
Auslö
Frag
Datenbank
##fragt
Standards
##x4
auffälligen
##ähnen
Hyperintensitäten
##spezifischer
##orl
##kontroll
##bereichen
##überlagerungen
statistischen
ausgehend
Tendenz
##yer
##gemeinschaft
##arenter
IMA
Stufenbildung
höherer
Begrenzung
##anspruchnahme
##aval
##wunsch
dichtem
##oforamin
Lokalrezidivs
##treter
Kohlen
schwach
##prof
##konferenz
besonderer
jähr
Studierenden
NSA
Iliakal
woh
Kontinu
118
zurück
visuellen
ju
Knochenfenster
induzierte
Vergrößerung
aufs
tumorsuspekter
Olig
Ax
##66
##oppler
nativer
überwiegen
pathophysi
Apoptose
cCT
vermuten
##uerung
sy
##erche
Zähne
breite
abgebrochen
Überlegungen
Seitengleiche
Enhanc
ausgeprägter
Ten
##etin
##berat
##frontal
##rief
Problematik
Impinge
##ufnahmen
Design
##einrichtungen
Vorhersage
CD4
##rezeptor
##ancomycin
neuroforamin
##ssige
##bsp
LAD
ND
##ponat
kaus
Tabl
Taz
240
##ständiges
Hiatushernie
Sonder
Signalgebung
proximaler
regelmäßig
##ografischen
marginalen
##eitenlage
Mediastinalorgane
psychisch
BARD
Nahtmaterial
1991
Beziehungen
welchem
800
Mammographisch
##ks
Vertebral
Benz
Hypophyse
Femurfraktur
##zeigen
##vig
##gue
Oktober
Fetthilus
existiert
Cerebell
##arfe
Dynamische
##messungen
##omografie
##inus
Endoskopie
cir
achsen
eingeengt
##pool
##over
##echselt
##zahn
pA
Meniskus
##oidalen
##wahl
psychiatrische
dichter
Dicke
##schreitende
Juli
ausgelöst
Allergie
##grube
##völker
##anstalt
##strahlen
Vorgaben
##gewichts
##etal
telefonische
Nephrol
auton
##rif
##sparung
##sent
korrekte
##lappend
##zifiz
Bandscheibenprotrusionen
##umm
Kleink
technisch
2017Labor
dislokation
##ickt
begrenzter
2017Klinikum
ossis
##masse
aufliegend
Behinderung
##schnitte
Allgemeinen
##verdickt
ansp
erwartet
##rankt
ausgesch
endet
fT4
Zytokine
Laufe
einsch
Wirbelkörper
Freisetzung
##olin
styl
Varianten
##katheters
differenziert
verschlech
Radiologen
antegrad
##inner
##thromb
Antikörpern
##rane
Bon
mandib
GrüßenProf
Normwert
Gal
Mortalitäts
Studiendesign
peris
vertik
##otil
meistens
##wenden
anger
Sedierung
##AD
Verfügbarkeit
##indliche
##skrank
urs
Tau
spin
##ararthrose
beobachteten
verbesserten
Ältere
bewerten
##phosph
114
Oberfläche
Depressionen
ox
##gefühl
laten
sozialer
##latation
Oberflächenspulen
MAG
##segmente
tauglich
maßgeb
Don
##ättigung
Coronare
Sigm
Aufenthalt
Bay
##can
Portimplantation
Mehran
Herzhöhlen
##zidose
negativer
Random
##chirurgischen
assis
pfleger
Umgebungs
Mär
elek
IQ
dün
osteoplastischer
Lakun
kulturell
vielversprech
stu
Stä
Lidocain
##nummer
##gerät
##italer
beschränkt
Rekan
Pandemie
beat
Lungenkontusion
##ureus
inc
zweimal
##upunktur
angi
##speicherungen
verloren
##bestimm
Hilär
Schmaler
intrazell
mikrobiologie
laborberlin
IT
Wirkungs
EUR
endoskopische
Fast
Punktat
Gan
wichtigste
kutan
##osed
dünnsch
Fahrradsturz
##ynä
Phänotyp
opp
entstanden
radiologisch
Subtraktionen
##wertungs
Ratten
Größenregredienz
gutes
##quote
Capsula
122
Negativ
ate
Adhä
Mechanismus
Gradi
Fluoreszenz
##ileus
##izienz
Genauigkeit
Inspirationslage
VCI
##kontur
kennen
##onas
##oin
vielmehr
metastasiertem
Dezember
Wes
##bewegung
lau
retrospektive
junge
subchondrale
Vv
intraoperative
##traktions
##ulitis
Eigennieren
rot
frontalen
Hinterkantenalignment
echoarmer
Komplikationsrate
FKDS
Punktionsstelle
vergröß
Breitbas
hochparietal
umschriebener
Hemmer
Konsil
sicherlich
##undi
West
Alz
Juni
Perfusionsausfälle
##oes
high
##LE
Stro
Praxen
##axel
Pallium
Fragliche
##igungs
Arthrodese
beruflichen
medizinischer
Kenn
berichtete
betonter
hyperintensen
175
##apparat
Influ
gekommen
aufgeführt
SIRT
##eis
##chirurgische
##ständigen
Mütter
aureus
Therapiehilfen
Phot
humanen
##OC
Nähe
##back
##itin
##ific
Kyphose
perit
##atherapie
##tember
echoarmen
Femurschaft
direkter
##stattung
New
##dislokation
C4
##inking
4F
Strept
anliegend
Splenektomie
bereit
Schließlich
##hungen
Flüssigkeitsansammlung
Cisplatin
pulmonalarterie
Finanz
Inanspruchnahme
TH
bipulmonale
Arbeitsplatz
traumatisch
duoden
##meldung
##atment
##alisierter
Aminos
betreff
##änden
##haf
##ulf
##abnahme
Interfer
auftritt
liefert
##les
Werk
gemäß
Stirn
fiel
##laden
##kamm
subtot
mess
Stanzbiopsie
Projektionen
Nacken
Pu
Rotation
NU
##sche
verplumpt
Erhö
Größen
sexuellen
Wissenschaftler
##resistenz
Nucle
##häuf
##abusus
Tetra
erkrankt
Vergrößerte
glatten
##weildauer
Gedanken
dorsobasal
stud
gemessenen
Up
##osarkom
Versorgungstyp
##leiden
##nes
meiner
expl
Großteil
##bereitschaft
##infekt
Differenzialdiagnose
Konsum
##uzin
##deviation
##ssten
##kehrt
eingegangen
Alzheimer
Kollateralen
##üssen
Kas
männlich
Schäden
kortikomedull
dilatierten
##kreislauf
genauer
##endokrin
##utri
Glut
Krä
##fällige
Epidemiologie
##iak
Diät
##implantation
Medien
Lungenfibrose
##bifurkation
Arztes
##lig
##differenzierung
##mie
Abriss
TN
Streifige
Heim
OB
peripankre
strukturellen
##bewegungen
##transparenz
bildgebenden
warum
aer
##uschen
Perz
Biolog
##dete
##olateralen
vorgeschlagen
DSM
##klavik
##gestütz
##bilität
Beachtung
##ribution
Euthyre
prozentu
Serom
##ssystem
##menop
##inhomogen
Geschehen
wenden
##schlinge
Rotatoren
Stäbchen
positivem
Feb
Lungenrund
Erbitten
##83
Varianz
Dose
Erl
Tubuslage
Vollständige
##cular
einliegendem
##defizit
subkutane
##GG
Spondylodis
Theorie
##oprothese
gewünsch
##hesi
zwin
Sonstige
ethmoid
Balken
##resse
CK
September
##spielen
lumbal
##kencephal
angede
erfordern
Endometrium
##zgl
reguläre
mammographische
##völkerungs
Pfl
##sätzen
höheres
##skontrolle
##fettung
Darmischämie
5cm
dürfte
lateraler
Narbenverhältnisse
##x5
caroti
seitenget
Offenbar
Pal
##tter
Umständen
mäßigen
zunehmendem
multiplanare
Preis
##herr
seines
##±0
##geburt
##schule
##sternal
Abwehr
genü
Altersgruppen
##sack
durchführen
durchmessende
rechnen
Tit
##opl
##irt
aufget
##obasale
November
##projektion
appliziert
##unterbrechung
##anzien
##äusch
fokuss
brachialis
polyp
##ältigung
##ülen
destru
Listhesis
##ziale
##rukt
schneller
DSA
##An
##BT
##alts
Verschieden
nerv
Schweiz
SKS
##ungsverfahren
platz
Mini
Innere
Resorption
zystisch
persönliche
fluid
##ürzung
Progredienter
##iatrischen
wies
majus
Antagonisten
##PP
##arameter
Extubation
Intensivmedizin
Maximal
Retropatellararthrose
verhalten
##biquitär
Hippoc
4050
konfiguriertes
hepatisch
ausgedehnter
Quoti
Neuroforamenstenose
##pelv
Global
aktiviert
##efta
hochgradig
Etabl
##obi
Obsti
Tuberculum
alleinige
motorischen
strukturelle
Metabol
##eotak
femor
Mc
minder
Pilz
beginnender
Antidepressiva
MHK
##mögen
durchschnittlichen
##bliche
Perspektive
Konsolidierungen
Bri
Miterfasst
##eftazidi
Bandscheibenfach
Verlängerung
Krampfan
##throsis
grundle
offensichtlich
##eftazidim
Beeinfluss
Sonographische
kardiopulmonalem
1980
sofor
repräsent
##verz
##apsel
alkohol
Nachbar
##gehenden
bestanden
säm
synt
##ozyg
Steroid
Chondro
##verlaufs
Verbesserungen
##unahme
Arterielle
IgE
ermittelten
längeren
gedacht
Zwar
erforderlichen
##lehnt
Mindest
Zahnarzt
quantitative
##ustenburger
Abschnitten
Produkt
getrennt
##bte
Beu
ziehend
überein
##ubert
Nierenarterie
405026
##iker
Dehiszenz
Setting
Pulmonale
Altersentsprechender
Krani
##vorder
radiologische
Weichteilschatten
Granulome
##obactam
##wür
##ürch
Osteodestruktionen
effizi
##nat
angestrebt
ext
Daneben
Kleinhirnhemisphären
Tieren
Reduz
700
Omarthrose
klassische
Kurs
SLE
##bulb
##ding
##heilungs
##esophag
Arealen
##äche
##zufuhr
Caput
unterzogen
Begleiten
Tazobactam
Malignomhinweis
trägt
Hypertonus
Thi
Motivation
Konfidenzintervall
fortgeschrittene
Ader
Stadt
rechtskonvexe
##olar
Rotations
organis
Influenz
Makula
Verantwortung
Lingula
##opulationen
unbe
M2
Hospit
benötigen
Heidelberg
gemeinsamen
##mensionen
##oraler
Resp
##igast
##drüsengewebe
Narbige
##stirpation
Angebot
Makroblutungen
seitengleicher
##toren
##osteotomie
weiterführ
##opathischen
niedrigere
Fersensporn
anaerobUntersuchungsauftrag
beginnenden
stör
vorgestellten
##spi
Orthograder
##ätzungen
wirksame
Versicherten
Ki
festge
##yls
primärer
##nas
##31
antegradem
subphren
##ctum
Auslauf
Kenntnisse
##uran
##bach
##stä
##sempf
##ana
Rückgang
pankre
Schenkelhalsfraktur
Firma
normgroß
EA
##ositis
äußeren
Nierenzellkarzinom
Tox
##hig
intravenöse
Daraus
##ackage
##aute
Dysph
##ye
metastasiertes
Substrat
##astrom
##ruf
Explantation
##jährigen
##olaren
Text
##neigung
##räume
SARS
##minister
##56
Max
cardi
Weiterbildungs
lumbos
Weichteilverkalkungen
##kollektion
psoas
##ädie
Hernie
Schallauslö
##ateraler
Kombinationstherapie
##fehl
Beobachtungen
##beschleunigung
Fallbei
induziert
##vaskularis
Ureters
Dex
Luftnot
##DA
##leg
thorac
##94
Unterschenkels
Fehlbildungen
Rob
Bestrahlungs
Unab
fT3
##ffraktur
##aggregat
##umoren
aufstei
Do
leu
##für
##GE
jähriger
wissenschaftlich
Mineral
##öffnung
##effekt
Komorbidität
VF
abgerunde
UA
##tical
##zeption
##opie
Empfänger
##schraube
sexuelle
Biomarker
##irub
systematischen
Glaukom
Vd
##ämatom
Erkennung
Physiotherapie
reduzierter
Narbenbereich
Mikronoduli
ähnlichen
schlechte
chol
Instituts
Hypodensität
Humeruskopfes
Gemeinsam
unbehand
Einflussfaktoren
wandverdickt
diver
Hauptstamm
##tiegen
ulcer
ischäm
##pes
##ria
glute
Innenohr
144
##otrache
##astet
angrenzende
spä
intraluminale
Kassen
##raumforder
gefordert
Atroph
gesetzt
##OX
##achweis
Alternativ
##MT
##appens
Asper
##achung
##geschlagen
##lagerungs
nativdiagnostisch
Assessment
##AK
##ased
##sträger
Perikard
Nuklidmehran
Population
Komparti
Ödem
Sprechstunde
Ödematisierung
##ball
##klinikum
infilt
knotig
##ualisierung
Verg
Lebend
spiegel
Lam
Wellen
diastol
Oberbauchs
sport
aktueller
##rums
##oider
Oft
Mü
Dign
beinhalten
Stationen
radiologie
##arbe
interdisziplinären
##ölbung
Woh
CN
hepatischer
lien
##fähig
Pankreasgang
Doz
Mediastrom
kombinierte
##osynthetischer
##teine
Hallux
##obox
Arthrosis
##höhlen
##ness
erhöhtem
Pons
##rientiert
Hemik
Telem
MK
belastungs
factor
Beiträ
Einsen
Punktions
##gebiss
##rimin
GKV
##antikörper
rekonst
Web
##uis
ig
schnelle
dilatiert
Migrations
ALL
Entlastung
CU
##stimulation
225
##unkel
Osteosynthesematerial
separa
##brix
diffusen
##mengen
standardisierte
FP
##St
förm
Plastik
Gonarthrosis
Unterlappend
plant
##02
##aktivität
Präparation
Allseits
Wo
osteophytäre
##symptome
##ragt
Liegend
##ozell
Maximum
Inkar
Endometriose
Dauerkatheter
Studienteilnehmer
Absetzen
##thorax
##schritten
##ablation
Summe
entschieden
geprä
##mata
Kreuzband
##führenden
Distale
Gefäßab
begründet
paran
Fasern
Bifurkation
##schrittmacher
##ernährung
Gefähr
Coll
Kons
Ziela
Interviews
Telebrix
119
Sequentielle
rec
Ren
flexi
##komplex
Zwischenwirbel
Optik
##isiko
August
Rotatorenmansch
kompletten
respiratorische
reduzierten
##rosen
##dokumentation
##ölf
Cholec
Medical
Biopsien
##lim
korrekt
alleine
Aussch
##verhältnis
Transplantations
psychosom
##mü
##rt
Gesamts
sk
##kompl
##knorpel
atypischer
Distorsion
Oesophag
Pharynx
Jahrzehnten
##igte
Therm
Mich
##uteten
##timal
physiologischer
##phink
geg
##hromycin
Cancer
rezidivierenden
Aphas
Unternehmen
multiv
Auflösung
##strategie
urolog
##giger
vertebrales
hätten
Stromgebiet
Mis
März
Inc
Urologie
Cholesterin
oblig
annähernd
stieg
##unterschiede
2016Labor
##optim
2016Klinikum
##ope
Organis
##oprotein
TB
mobil
realis
##strauma
##ace
Candid
Mikrokalk
emotionale
##telligen
verkal
Divertikulitis
Bildungs
erhöhtem
ige
##openem
Spekt
interc
PZ
systematisch
CCK
##unction
Gleit
Lösungen
zusätzliche
ausführ
Teilnehmern
900
##ahämatom
interaort
557
Auslöser
geschw
Zweifel
prominenter
##simb
##vofloxacin
ADHS
##llten
Si
vereinzelte
bringt
Knick
Alltags
weiterführende
##ibrill
lipomatöse
Rhythmus
farb
breiter
erkrankten
##gill
Opioid
perisplen
PBS
grav
##ikon
Obstipation
##reise
##äuse
##dynamik
verste
##86
partieller
paratracheal
Radiusköpfchen
Tibiak
HK
##ides
##lässlich
Einführen
##protein
Angebote
##fluß
Köpfchen
Scheitel
basilaris
Bindungs
##ike
Knöcherne
##cum
##inkontin
Führungs
Schmales
interdisziplinäre
symptomatischen
frontoparietal
##ählte
deutschsprach
Kry
Cochlea
Valid
bili
##stauung
Mammae
##prand
##arbeiter
##artiger
##drüse
demonst
begleitet
##mäßige
##arthrosen
Sper
Kleinere
orientiert
mutmaßlich
Anw
abschließend
CoV
##istrierung
Spondylodiszitis
Cholezystektomie
##enkon
##akult
129
Akupunktur
hypointens
##attet
Rejektion
Verschie
Infobox
Vorgehens
sagt
##läufig
kum
Endpunkte
Wiederherstellung
Syndesmophyten
syndrom
gast
Hepatom
ausgebilde
Ib
Peel
##hls
Axilla
überzeu
Cutis
Plazent
##ontinu
kalzifiz
linkskonvexe
##gewebs
##enkont
##entzünd
PH
##ikardi
keines
unterteilt
##edizin
##wesenheit
##pum
Dekompression
##pin
Neck
stattfinden
##ubations
endovaskul
126
Blutfluss
Identifizierung
##horakal
##entrum
##applikation
Millionen
Peripherie
ELI
Kallusbildung
##view
eingeteilt
präz
Zwerchfellkuppen
Anst
##inges
Labrum
Ossifikationen
peribronch
##endigung
Peritoneal
##ingegen
##volumens
Linksseitig
protek
objektiv
MRCP
##BEinsender
del
Grob
Hyperost
Knochendichtewert
fund
##exie
registr
schla
styloideus
##ound
Synkope
aortal
isoliert
##reihe
Vul
##itter
Hypodensitäten
Tabak
Luftüberlagerung
Mandibula
Bronchialkarzinom
Infiltrats
einiger
##zem
Gallenblasenwand
Kortikoster
Vigilanzminderung
kgKG
6mm
Zereb
bilaterale
eingestuft
Ell
Lücken
##tischäm
##krip
Dank
versp
verbundenen
Ei
verteil
Galeahämatom
EK
Nachteil
V4
Wiederholung
##orischen
international
8mm
##gbar
Anfalls
Marklagers
maximaler
Vermehrte
##mmen
dB
##ertem
##reduz
Bronchop
##pping
schaffen
geplante
Atlant
zukünftig
##pulmonal
Gliederung
Komprimierbarkeit
usep
bestehend
usepackage
LDL
##datenbank
##55
könne
Proze
Aqu
##cine
Kir
Partikel
Mitralklappen
umgesetzt
liegender
Dort
##sehnen
Karotis
reversi
Umfrage
Phosphat
##miss
##GT
Allgemeinzustand
Mittl
Wien
inwieweit
Verträglichkeit
##abhängigen
Erhaltenes
therapeutischer
Lymphome
##inkontinenz
doppelt
##tentorielle
kontrovers
##knöch
dek
##poli
Muskeln
Auftreibung
Mehrheit
##eichnung
Höher
Pilot
Histologisch
##schaubaren
bewirkt
##wth
Baseline
##pr
##osomal
nodul
invol
Zwangs
##PT
vieler
amerikanischen
Beta
Fettgewebsimb
lokaler
großem
##odierung
Lungenparenchyms
##flutung
begleitenden
##staus
cerebell
Lockerungs
7mm
Analgesie
Selektion
milch
##schläge
Bronchitis
##wahrscheinlichkeit
verminderten
##odynamische
Osteo
4mm
##ünstige
##träge
werde
##nae
##edback
konfigurierter
Perzenti
##weiser
pAVK
Fußes
Resisten
Flüssigkeitskollektion
203
Miktion
Phen
##oser
##träger
rechtzeitig
127
##izieren
##wissenschaft
tradi
Klammernaht
##doppler
Elektrode
IVa
Linksseitenlage
hilft
Analge
Knochenmarksignal
Fisteln
geschlechts
##brech
##gerä
Strahlenexposition
Hypodense
Daumen
Konsekutiv
##wirbelbildung
Schlag
##zyklus
Vereinbar
Hilusnah
##CH
##rachte
Kieferwinkel
Haltung
Sucht
I°
Einschmel
##befall
Passagestörung
Rober
therapiert
Hydrox
##transpor
Rahmenbedingungen
##TPA
##kalzinose
Staphylococcus
elong
mittlerer
woll
##äss
##tise
SPA
##abhängigkeit
Überlebensrate
##ücke
LS
konservative
Spei
cm3
Transformation
##cephalus
Zit
randständig
##tison
chirurgischer
##iventrik
##ilien
##aumens
vern
gewinnen
irre
Infratentoriell
Pars
##risikos
Nächste
1989
reizlose
Todesfälle
Ankyl
Millili
paramediastin
kontrastmittel
Frie
National
Febru
Typische
Operationstechnik
##titäten
Aufhellungssaum
renalen
##olektomie
Allerg
##sprä
##arach
unabhängige
äußerst
Putamen
##lymphknoten
immunhistochem
Präventions
HbA
Lebergefäße
##orientierung
##lateral
Semin
endothel
##bten
##transfer
Ohrneben
Inser
Beeinflussung
##edochus
optimalen
Ohrnebenräume
Atmung
Bedürfnisse
eingesetzten
##UNG
nm
Klavikula
Arach
Globale
137
##lec
##apula
angegebenen
Gehirns
##pektoral
##stuf
Durchleuchtungs
opticus
Nä
Abbau
MAG3
perkutan
Schrittmacheraggregat
kU
Leck
124
terminalen
kontrastierten
Rückenschmerzen
CED
##Vor
Lebenserwartung
Schub
##tigm
Beckenorgane
##gerufen
##utionen
Pathophysiologie
Alpha
##decke
##neter
ELISA
##hengeminder
inhomogener
Kno
Coronarsklerose
hochfrontal
Torsion
##amycin
Reich
trocken
Hepatomegalie
##ilis
enge
##wig
IU
Portkatheters
Verschiedene
zeitliche
intensive
protrah
toler
##schmä
Dosen
akzentuiert
Kniegelenke
##konzepte
Kurven
##IG
auffällig
Gelegen
Abschließend
mütter
einfachen
##gebur
##nahm
Obj
jeweilige
erkranken
Glomerula
##verzeichnis
Atelektasen
##lot
##wehr
zwingend
Zeiten
Integr
Pflegeh
fraktur
Nekrosen
##will
Impingement
Protrusion
Tachykardie
MTX
Aggregat
##CG
Gesichtsfeld
Februar
Etablierung
nachdem
##my
sekundär
S6
fre
Universitätsklinikum
Gradienten
Durchschnittsalter
Antel
##enzeichnung
SZ
sah
Professor
gesteigerter
Aufhellungslinie
Fremdkörper
abgangs
##agements
verbliebenen
##septum
##blatt
Schule
senken
Cur
Lokalizer
erneuter
reaktive
them
online
leisten
dent
Nucleus
##skopische
Luftband
Endoskop
##riktion
Viszer
##hard
##möglichkeit
##tikuläre
##verstär
##prägung
##gesetzte
cervikal
##otherap
Tat
üblichen
Wär
##orben
##kanten
Tätigkeiten
hypointense
Epiphysen
embry
Verordnung
kranken
Amplitu
Lot
##aufwand
infiltra
Bemerkung
Laten
##drucks
transversale
vertreten
säm
Stri
unklaren
##HD
##inelle
##verfü
Hemisph
cc
benign
callosum
Notaufnahme
Wel
tradition
rezidivierende
##tektomie
Aderhaut
##inz
##hygiene
Parenchymkontrastierung
bildgebende
Rezidivs
Brü
derselben
durchgreifende
##stritt
ersetzt
##100
Keimen
infrage
FG
Ovarien
##atigue
Od
GFR
##fehlstellung
Single
Technisch
aktiver
##abschnitt
##rigem
verringert
Gens
##efe
Cortic
ras
Apex
einhergeht
##quellen
bipulmonal
Signalveränderungen
121
verwendete
##lorid
bull
Pac
konservativ
Unveränderter
Milliliter
projektion
##icz
Mittelohr
Rückenschmerzen
##ringerung
verteilt
etablierten
dahin
##ymptome
##desch
veränderte
##sions
##förder
veränderten
##vit
Zustimmung
größenregrediente
bakterielle
relativen
transversum
ResistenzMikroskopischer
Human
gebunden
##inat
##reicht
Herni
Karzinomen
syn
Ciprofloxacin
Bos
verzeichnen
##ichteter
##piration
bronchiale
physikal
IA
Kranial
Tränen
möglicher
bundes
steriler
umfassende
Therapeut
usw
Katara
##plizit
##alien
Mehrspeicherungen
Assistenz
erklär
##auern
Tend
##izit
heran
internis
Ausprägung
##ophas
radialis
verdickte
##kommt
##ometer
irgend
Journ
übrige
angedeutet
##Blut
versorgte
##oplasm
##enzunahme
##ül
##ory
##altungs
psychosozialen
Lymphadenektomie
Freies
Gesundheitszustand
##rennen
##utro
Rückenlagerung
##prinzip
intraoperativen
venösen
psychosoziale
Aphasie
Längs
##abin
##schmäler
VAS
PL
##tives
älterer
##okom
Schädelgrube
##fik
Pne
Ausläuf
Beziehungs
externer
Effizienz
überprüfen
Stat
konservativen
Rezidive
residuell
Spül
##modelle
Reflex
##register
##iales
Hygiene
zeitlich
0311
3mm
##oration
DF
##NE
Oesophagus
##techniken
subpleural
Zufalls
##itud
Emo
##probleme
valgus
##modul
perioperativen
verstrich
Lupus
##implant
Symmetrisches
##asie
##reflex
##ieller
##beratung
DTPA
Lymphknotenstationen
ulnae
koronal
kontinuierlicher
##rup
Ket
spondyl
##arachnoid
Lumbal
reproduz
##begl
##kretion
##seu
neurovaskul
##freies
Dagegen
##räg
##ordnete
iso
##chron
streifig
bewährt
##malign
belüftete
sym
##irekt
RSO
Schlanke
LE
Subtraktions
ang
##korp
##ADS
##89
##wa
Nahrungsmittel
##entia
durchführ
Reservoir
befragten
##ütung
Resektionsrand
##defizi
lienalis
Auges
Gon
##muskul
Kinetik
##ilob
disseminierte
Ektasie
CY
Medull
eingeleitet
Validität
##ostal
Flaue
praktische
Angrenzend
deuten
Haste
Syndrome
Mittlere
peripherer
Normalisierung
begleitende
markiert
##bauung
basierend
Nierenparenchym
Leistenhernie
##konturen
##ques
messendes
Zehen
Beendigung
Bereit
Skelettszintigraphie
Körperoberfläche
Zahnärzte
perman
Study
Lev
##ränken
parenter
##echogenität
Regeln
verminderter
Facettengelenke
geplanter
Spongiosa
Prednisolon
##füllung
Bildern
Milchglas
exprimiert
##aphyse
##gast
##LL
Schritte
ekt
##arditis
Hypoxie
##rue
zielger
##fragmente
##ädigungen
kombinierten
##fälligen
Kindheit
absolut
Erkenntnis
Anfälle
Gluc
Erwartungen
erfüllen
Einblutungen
Verbreitung
##ygen
Aortendissektion
regionalen
Haar
##cover
ulcerosa
##here
HER
anschließender
Leser
##ulicz
Patientengruppen
##rinden
Ventilation
Tonsillen
ID
##euer
reagieren
Verringerung
gewisse
Darauf
Hinterkantenbeteiligung
intrakranieller
eingebracht
##änderung
disloziert
auffällig
##col
##berech
Stauungs
##ntes
##anol
Erscheinungs
Kurzachsen
Implementierung
##utropen
##anin
##wes
##seudom
Interleuk
##kräf
offener
##seg
Duodenal
praktischen
häus
2015Klinikum
##zintigrafie
Operateur
Nativdiagnostisch
langer
nukle
Hierfür
mel
vorangegangen
Femor
Meningeom
Kardiomyopathie
metastasierten
rasche
##ail
Bandscheibe
##obene
kleinem
maligner
##VE
Gegenphase
moderat
Nitro
zerebellär
Trink
Abrech
Mastektomie
neurologischer
##plik
##oradi
##Blutkultur
Schockraum
künf
##igmen
Sectio
Pleur
##sko
Frische
well
fläch
schizop
myokardialen
humer
Skleros
##oxifloxacin
nachvollzieh
fehl
##akter
vul
subcutan
überschaubaren
grau
Vergrößerung
Mehrfach
exakte
Evaluierung
synthe
zwölf
##apan
Nachdem
prüfen
Bech
Lebertransplantation
##hintergrund
##angebote
Lipid
Radik
Untersucht
##nö
##fistel
##portion
##cip
ASA
Fests
kont
appliz
Astro
##abt
Erhaltung
##berichte
2015Labor
##horns
E04
Hochdruck
Sind
perkutane
177
biphas
Routin
##hängiger
Blu
befundbezogen
Thalami
Get
##weiterung
##ostase
Reli
operierten
##ulargelenk
verpflich
nennens
##liste
Sarkom
Hirndruckerhöhung
acetab
##91
##atrialen
##ichtigkeit
ausgehen
##tret
Assoc
##residuen
metatarsale
Beckenring
Synthese
verkür
Femurkondy
Vals
Dyst
##offwechsel
Leitung
##ubstitution
Interaktionen
Aerob
##cul
erfahrenen
Gelenkflächen
motorische
##sser
Hydrocephalus
##akquisition
Zystische
Schlafstörungen
CAM
ultra
##onin
tätig
Kinking
Bewusstseins
##mutter
kla
Immung
Herzrhythmus
Inhibition
lakunäre
2014Klinikum
EDV
perivaskul
Sitzung
unverändert
kurzfristig
NUK
Einsendesch
Symphyse
Interferon
##flexi
Familienanamnese
##ssigen
Typen
Lernen
Engl
Gesunden
SN
postischäm
##otaxim
pectoralis
Anastomoseninsuffizienz
Herzen
Inkontinenz
Spinal
seitengetren
##ögerung
ggfs
Atemweg
##vag
bearbeitet
hinteres
Produkte
Fatigue
engmasch
Fallzahlen
somat
##anterweise
Plus
##horm
##rex
hyperdense
VHF
Hilfsmittel
Spülung
##marker
IgM
fibrotische
##onzentration
Blutauflagerungen
Absol
##hang
signifikantes
bezieht
koronaren
Lum
ROI
Zusammensetzung
ery
##kompetenz
Bip
136
Schilddrüsenknoten
##atzt
##let
##flich
Hydr
##streckiger
Thoraxdrainagen
RC
Peter
RG
zählt
bestimmter
tuber
verläuft
##MF
Raumes
Rec
##kommission
2019Klinikum
Myk
kontrastmittelauf
Intest
gesteigert
Initial
nos
##utum
##einnahme
Mineralisations
Auseinander
Go
Satz
##stufe
bzgl
Wild
Anreich
anzusehen
##furt
##allergie
Möglicherweise
steigende
##ski
##präche
##markierung
keinerlei
Vorgeschichte
Höhergradige
BZ
eingeschränkte
Mammasonographisch
Jejunum
Mäuse
##ländern
##ammlungen
einliegenden
üblicherweise
Kompetenzen
empfunden
integriert
Serop
##atös
vorüber
Harmonische
##hypertrophie
Differenzialdiagnosen
Tumoran
retrocrural
zarte
Chef
Rosenberg
Teilbefund
##osomen
##aß
Suppression
##ali
Einsendeschein
##ysis
tumorsuspekten
richtet
##auss
Chance
##eignis
##phon
gesenkt
intracranielle
##ömm
##leitende
Allergen
##ifizierung
Sinterungs
Prostatektomie
Nahrung
##rierung
9G
OÄ
Unklarer
medianen
zusätzlicher
intrahepatischer
##bläschen
untersch
Fußskelett
Polypen
auftretenden
Wirbelkörperhöhenminderungen
THI
Disease
gestütz
Forder
Schnell
##faszie
Warte
Koloskopie
harmon
Gefäßen
modifiziert
##erkennung
Leits
zufolge
##strecke
E2
##hesen
submandibularis
2014Labor
Erhöhung
Mikulicz
hierdurch
Kön
Ergän
sensor
perioperative
##geg
klassifiziert
Metastasiertes
##verbesserung
Anteils
kräftig
##olisthese
Gefäßverschluss
multin
Respiratorische
kongen
zystischer
##angaben
Intersti
Abweichungen
milchglas
2019Labor
##streben
Unterschenkelvenen
wohingegen
##ambul
##endurchmesser
##istente
Cluster
Zielaufnahmen
##ssyndrom
##granul
angefertigt
Relation
aktu
Spiraltechnik
Video
Wunden
Dox
tägliche
##ignet
Based
Zeichnung
##säulen
Transl
endgül
knöchernen
Gegenüber
Pleuraerguß
Grupp
port
Superinfektion
##utre
av
ausgesetzt
ungen
Stroke
Weber
HP
Cave
##bert
erläutert
C3
Schem
interenterisch
Zunehmend
Gelenkbeteiligung
##invasive
empfehlenswert
Ampicillin
zy
Stammzellen
Mor
##gelt
Immuntherapie
##umpfunktion
##deten
akutem
Linkskon
##AGNO
restlichen
##oplasie
beantwortet
##mpicillin
tr
problemlos
##sinterung
Problemlose
##kriterium
##nien
Medizinischen
vollständigen
Limitationen
##tensive
##utage
Poster
mittelständiger
from
##ungsverhalten
##äßiger
##Sehr
FL
blau
##brid
stereotak
##82
##timmt
Korrelationen
Hg
zieht
G2
kos
##riedi
##TR
betroffene
Immunglob
Gewichtszunahme
ausreichender
Zungengrund
paras
10mm
dimension
Inhalts
Flüssigkeitssaum
##emmung
unkomplizierte
nachgesch
##akterien
Mediastromgebiet
##perfund
##itierten
Rekru
Anreicherungs
gynäk
##tisol
Ventra
Mittelgradige
PHI
Defibrill
##tierend
##träglich
Schwi
tö
##bahnen
standen
Hauptbronchus
##ktasien
##xie
##konvex
##aphoid
hinweg
Therapier
beruhen
biologischen
0G
eignet
EAS
##Ch
verstär
Höhenminderungen
Tu
##nachsorge
Querschnitt
Kalium
Mammakarzinoms
##ophytäre
##eier
Signalsteigerungen
Retention
induzierten
##ätigung
Plattenepithelkarzinom
Ventral
##üdigkeit
Herpes
Strahlentransparenz
Peritonitis
##ktasen
Gentamicin
Aspekten
Scien
MG
##wuchs
Echokardiographie
Akte
auftretende
Schiene
Fortschritte
##ulums
wirtschaft
##zugs
ventrales
Fabella
klinischem
Zeitschrift
AO
##ständigkeit
beachtet
Adaptation
##fleckige
M0
Ausschluß
DIAGNO
##äfts
Pankreaskarzinom
##ippung
##TEMI
intensiver
erstmalig
Hochgradiger
arbeits
##obronchial
Neoplasien
Gebiss
Tris
Toxizität
##52
##qualität
mittleres
Pleurapunktion
Schilddrüsenszintigraphie
Nachuntersuchung
Pseudarthrose
Schüler
##igar
Versuche
Listhese
geringfü
##ypen
Therapiebeginn
detektiert
vorhandene
uter
Seitbild
steigen
##geräte
Skelettalter
##apenem
Baucha
Robert
bewirken
Starke
Formal
supratentoriellen
Candida
##itiver
##ursachen
Immunantwort
generalisierten
Sonnen
knöchern
reizlos
##rins
VKB
Kräftige
Mundboden
Achill
##gegenüber
##ontifiz
##stillstand
verkleinert
AVM
abgekapsel
regio
Nierenbeckenkelchsystem
Übertrag
grade
##49
Juck
Prozedere
pg
LVEF
Schraubenosteosynthese
##nekrosen
##tierenden
caudatus
unseres
##vereinbar
Umstellung
##abszess
##ösophage
##ürfen
Unterlappendystelektase
Verbr
1988
Flex
Bluts
##stadien
Einbringung
EDH
begleitender
##menopaus
##dessen
Laborinformation
##höhe
##vertebralen
ord
IgA
Prov
Hinzu
##kategor
##olep
##skoeffizi
Angina
viszer
##osteochondrose
Verlaufsbeurteilung
##stitu
submandibulär
Krankenhausaufent
Hyperperfusion
##uff
##tfertigt
Kü
richtige
konkrete
interstitiellen
Dysphag
dark
##odulus
Jeder
maßgeblich
Charakterisierung
Aspergill
##verk
Erne
Anges
Stärke
regul
systemischer
EP
##ence
angesichts
Cut
Sor
szintigra
betrachten
Früherkennung
Ord
benignen
Akzentuierter
SLN
##vul
rückläufig
selektive
befragt
##yd
Geringes
Begleiterkrankungen
Körpers
##pneumonie
Bewegungen
valid
Shunts
Entsp
Lungenfunktion
Referenzdatenbank
##läufen
##ärem
Platzierung
Subdural
##uche
GS
##äriell
Laktat
genannte
Lebensmittel
Tumormarker
Regaden
verändern
hepatop
diejenigen
verschw
Influenza
potenzielle
##ündung
Verhaltformation
Center
Einkl
erlebt
Bandscheibenprolaps
akutes
Einheiten
Pumpfunktion
Doc
Dimensionen
Langz
fortgeschrittener
133
##angebot
##noc
hemisph
##tlicher
Inzision
##akralen
Frakturzone
geschaffen
dynamischen
##gespräch
normweite
klären
jem
Objekt
##ombin
##ospas
Pseudo
##osinus
Sexualität
zuerst
##ktor
RFA
##assoziierten
Köl
Gallengang
fragliche
##ector
unterb
natürlichen
nachzuweisen
Begleitung
Episoden
##eitiger
MV
Flache
sonstige
Aortenklappe
Gehör
Ritu
##suspekten
Aufhärtungsartefakten
##stab
PHIL
OSA
Hüftkopf
indirekte
verfü
Nasenbeinfraktur
##mikroskop
Gicht
Kardiologie
Vi
Geschlechter
abgefl
Frontal
Gallenblasenbett
nachfolgend
Kaudal
##ato
Parenchymechogenität
unbekannt
Myc
wann
morphologischen
SHT
##okolle
Rechtskonvexe
##idazol
##stent
Konventionell
##pathologien
emphysem
gutem
Opfer
Thromben
Thyreoidektomie
A1
eingestellt
##krankheiten
##ryl
NK
Vertreter
Lo
Handeln
ganze
Kontakte
##kav
##isierungs
Herstellung
145
Katarakt
PAS
vers
##fahrung
konkreten
nbsp
monokl
##tiefe
##APHI
##verarbeitung
umso
Komplexität
pap
Verbreiterung
höhengeminder
neuroendokrin
Verh
gül
stabile
bildmorphologisch
TF
##weiten
##entan
##kunfts
##ymmetrische
kritische
Signalabfall
stärkere
Binnenmuster
Perfora
transversus
Hämoglobin
Spezial
Zahner
Orale
vielfach
Mantel
Erhaltene
##oligament
Umbau
C5
##con
HWK5
Faszie
Albumin
Artefakte
##folgt
##greichen
##otope
fetalen
Mittelgesicht
##örter
hinreichend
komplexer
Bür
##vaskularisation
Herzerkrankung
##schaf
verbreitet
Somat
##füllung
Arrhythm
schlechten
Papillen
prognostische
gäng
Ana
Enhancements
Sterblichkeit
Gehör
Noduli
##opatienten
intrat
stär
Aortenbogens
##axon
##prall
DCE
##gestaltung
Ligamentum
Visite
##stumpf
block
##unkte
##ples
Treppen
Ausschlusskriterien
Mu
Kaliberschwankungen
##ochirurg
Hyperostosis
##falt
##dektomie
venoes
anzahl
Teams
##acarpale
regionale
anderes
Schulung
132
##falzin
##42
##bewertung
##rieren
##schichten
ru
##induzierte
Aortenaneurysma
##GN
Mitarbeitern
##zwei
diffuser
diffusionsgewichtete
Alkoholkonsum
auslaufende
##greifender
fleckförmige
##lern
Leberlappens
bedeutsam
##tensin
Prädiktoren
hergestellt
Optionen
erschienen
uni
zartwandig
Regadenoson
Variable
Bor
Grenzwertig
Enteritis
Krankenkasse
##kalzi
kontrastieren
Folgende
##ivalent
Variabilität
Sputum
RCA
##zys
kutane
##woche
Portal
Tracheal
Rollen
ernst
Präparat
Placeb
Missbrauch
verfügbar
biom
Mehrsch
##wertszeit
##ön
Intervertebral
erfolgreichen
kritischen
##niak
##acken
diagnostisch
Vital
Forts
##austausch
Vancomycin
Herzklappen
Wach
Expertise
zuverlässig
##alzone
massive
##unnelung
förmige
Femurdrittel
##pell
##fordert
Fissurenzeichnung
Supervision
myel
verkalkter
Mart
manchen
Aneurysmata
extrakraniellen
neun
ausreichenden
##divertikel
##ötz
Tumorrezidiv
zuzu
##oul
##gessen
Ableitende
fehlendem
abgelehnt
Mittler
Viertel
atypisch
##spekt
##axiale
Hyperintensität
diffusionsgewichteten
Prolaps
GDH
Zunächst
kräftiger
Sternotomie
##igecyclin
##erhalten
ped
symptomatische
Gastrointestinaltraktes
##oxifen
Abdecken
##ya
Hr
##ley
Lungenembolie
Prinzipien
Teilweise
Unsch
##etam
##auerung
IR
##prothesen
verfügen
SSS
Sak
anzunehmen
Unterfeldern
Zahlreiche
##vac
Lobus
Geschichte
persistierende
##öh
##romion
Sentin
eindeutiges
Immunsystem
lockerung
Zigar
indirekt
ORIF
##luss
abgel
abgesetzt
prolifer
Überlegen
##irubin
Intrapulmonal
Abschnitte
Knochenmarks
Therapieverfahren
au
##yla
Bandscheibenvorfall
Mehranreicherung
##VB
Minderung
##IRADS
##larm
erhaltene
PHILIPS
Sinterung
adul
Fran
##befunden
thorako
DIAGNOST
Verschmälerung
hinein
Interleukin
##transplant
Vorerkrankungen
##EM
binden
vorber
##sebene
##atika
ungefähr
belüfteten
insb
perisplenisch
##ondylaris
##inhomogenitäten
##uistik
extrazell
Umm
langfristige
fil
##bektomie
Institutionen
ov
##ranz
##rein
##flü
##alltag
##labor
##ertro
Speicherung
Bot
Registrierung
DP
Flussbeschleunigung
##paraten
Denk
##apin
Ty
Suszeptibilitätsartefakte
##ISH
residuelle
Kurzachsendurchmesser
Injektionen
that
ausgewählten
##aktiver
##ases
schwanger
Elimin
##jejun
Voralarm
##individ
Erweiterte
Cauda
##übermittlung
phase
Empfehlungs
pd
##antifiz
##iom
##arthr
##ometrischen
##efrakt
##abschluss
Extension
##ahlzeit
kumul
monophas
Screen
abschließ
##ressiven
Pseudom
Krankheitsbilder
Übungen
alternative
Mi
Meist
##tspiegel
Frühgeborenen
##greifend
durchgeführte
EB
bilateral
ulnaris
##liegender
BP
##lazeration
Umschriebene
##ärm
Dct
##area
Pfeile
Hohlorgan
osteo
Verstär
222
Physiologische
Navig
Leberpforte
Verdichtungsherde
Polymer
##entnahme
##indikation
leg
pleurale
##ägen
##tumors
erreichte
galt
##einheiten
Vaskularisation
Therapieoption
Pleuraergüssen
Intelligen
1987
Dafür
##empfehlungen
##narkose
Hirnbasis
Nebenwirk
Inflammation
supraaortalen
##remor
Retraktion
##amb
Aktivitäts
transk
Computergestützte
getrig
parailiakal
Corona
berufliche
Elektrol
breiten
Erhöhte
##eisch
transp
##schwiele
Seroton
Zuletzt
qualitativ
Meningitis
Planungs
niedergelassenen
Aerobilie
Einflüsse
Anwendungen
fettgesättigt
##begrenzung
##emm
Phil
NSAR
##tests
Zielsetzung
Operate
explizit
pelvinen
##dysplasie
##härenz
##aken
Hirnarterien
##ürf
betonten
Isth
Führ
unabhängigen
##angeschnitten
##otrimoxazol
endoskopischen
Organismus
Symmetrischer
Cage
##stadt
darzustellen
alveol
kräftigen
Bosniak
inkompl
Ausgeprägt
atemmodul
##serkrankung
Schwie
axillaris
experimentellen
##lokalisation
##ünschen
einger
Emin
Implantaten
##nep
Konsolidierte
Einwohner
Ulzer
##ichtspiral
Ku
niedrigem
san
##axie
metastasensuspekten
pen
##76
Ähnlich
Herzverbreiterung
Stimmli
##ariaten
Pleuradrainage
##wirbelsäule
Parotis
Eingeschränkt
neutroph
harnab
1970
verkalkten
streng
##bestra
haus
Transitionalzone
sigmoideum
stenos
Mehrschichtspiral
##mens
##hibitoren
mesen
Karzinoms
##enen
gemischt
Extraktion
metabolischen
##ontherapie
##asy
Gaumen
Jugendalter
stammen
propria
cGy
kodierbaren
Aufweitung
Mittelfuß
auto
Pyelonephritis
Segmentebene
beendet
##ierbarem
Ermittlung
Cav
##sparameter
Elemente
konf
vordere
Will
##sequenz
Medial
individu
hervorgerufen
##oskel
##uste
bedürfen
harnabführenden
PatientInnen
##zehen
entlassen
periventrikuläre
Rechtsherzbelastung
##bestand
Metaanalysen
##gefäßen
##GD
##iser
##ludge
Aufrechter
stri
##atechol
Pupi
##verständlich
abgew
ICA
mitge
##interventionelle
kons
niedrigeren
##ärfe
##zephalus
mäßiges
Hinterwand
Fragebogens
LU
##edit
Supraspinatus
##ept
##stär
##orens
##spannung
PICA
Hippocampus
normales
Kniegelenkes
herk
geringerer
##skalen
Berufsgruppen
erwies
Klär
Prüfung
Retrolisthesis
nachfolgenden
Übriges
Anwender
Eis
Verabreich
##ozytom
##wirtschaft
AFP
isolierte
Transvers
Kapillaren
Flanken
##omastie
Lokale
gesteigerten
Hierdurch
Vorderhorn
vermitteln
kaud
ink
##tikern
spec
Wundheilungs
sta
TBC
Late
##teron
Hypothermie
eigener
6F
##ey
Mitglied
##srate
Stoma
##odiazep
##ssehne
inhal
Alarm
##ramm
quantifiz
papill
gewissen
Herzschrittmacher
pT1
##gebend
Immer
Antibiose
eosinoph
Tumore
beschäftigt
Orientierend
##geführte
Nachblutung
##interventionell
##vasat
vibe
Association
##weisende
##rufen
NR
abdominal
Kalzifikationen
##eget
##raumforderung
sagittalen
##obasalen
präsentiert
Stations
##beste
Pharma
##vic
Interdis
Schnei
2013Klinikum
Autoimmunthyre
##läsion
##ventrikulär
##progress
##stunden
##atch
Konsequenz
##stomie
Vorstand
Mamillen
##orientiert
Hände
Einzelfällen
regelmäßigen
Formel
##iatrische
überra
Erleben
betontes
implantiert
##kurve
Durchbauung
II°
Wundheilung
formuliert
diagnostischer
zufä
##arly
Füll
subphrenisch
Fettgewebsimbibierung
Aufarbeitung
Modul
ästhe
Eindruck
chirurgisch
level
Seitaufnahme
##APHIE
Verplum
Spondyloosteochondrosis
##schr
##x3
##tile
Malignitäts
Cerebellum
##manifestationen
Größenkonstanz
##ada
Marknagel
uf
kortikomedulläre
##ulares
FX
##jähr
Organen
##unregelmäßigkeiten
biologische
glatte
Atypische
quer
diskreten
meninge
vorsich
##84
angezeigt
Blocker
hypodenser
Anom
study
##utzutage
Querschnitts
progression
Einschlusskriterien
##degeneration
Rat
Sektion
intrahepatisch
##bie
weichteil
cranialen
Beiträge
Deutlicher
##eftri
Uptakephase
Überlegenheit
ha
triphas
Posit
ACA
Elongation
Zwischenzeitlich
Verteilungs
Mö
hydro
diskutieren
Gestations
Gesichtsp
##überlebens
Nuklidverteilung
##bler
SPSS
Innenmeniskus
beschleun
Ösophag
progres
Modal
jüng
konfigurierten
periprost
Parodon
Dual
Fünf
kalkdichte
nosokom
herkömm
isolierten
##positive
prominent
##uckel
artifiz
Techne
Knochenz
Ausgeprägter
##ophosph
Bildakquisition
locker
Teilh
W12
stabilen
Hypok
strom
##izep
akzess
##drich
##produkten
##ympan
gewichts
west
Abend
Mögliche
Interdisz
##netz
minor
suchen
Drü
zervikaler
Atrium
entdeckt
HBV
parakol
bif
##odosa
##icill
Röntgenthorax
##betracht
Kortexband
##eftriaxon
motiv
gleichzeitige
##freier
glatter
Kontraindikation
Neutropen
##prozesse
Genu
##förmige
##ertrochant
##hiläre
Prox
rectus
Knochende
Benzodiazep
aussage
were
geachtet
9mm
Wenig
Refer
Herzinfarkt
kön
größten
alternativ
geprägt
Einliegende
##stiefe
Cy
##tenden
##x6
Real
Hierunter
##endach
benutzt
##schwere
Kasuistik
ipsilateralen
transi
M20
##infiltrate
##versuche
002
Linsen
##warten
##passen
abgek
AW
iat
Liste
##orfen
gesundheitlichen
##sste
virt
Impfstoff
Berichte
Systemen
ligament
genug
Medium
Basedow
##Piperacillin
doi
##atalog
1cm
mandibulae
##ypt
Tumorresektion
Leukencephal
Plant
Euthyreose
Roll
##gebedürf
##ameth
Inhomogene
##aur
Vorfeld
zonale
##übertragung
Schwellen
eingeschätzt
EC
Mittelständiges
##entrif
Depressiv
##vergrößerungen
antim
##ivac
Dysphagie
Rechtsseitig
zurzeit
##lande
Kelchgruppe
verständ
Beobachtungszeitraum
LTx
##ständen
##eszenz
projektionsradiographisch
LT
TIA
implantierte
Knöchernes
günstig
##äle
Minimaler
Unmittel
##stigen
Frakturspalten
##orientierte
blieben
Ek
Entzündungen
globalen
atlanto
Studienergebnisse
##färbung
##alva
Defizit
Tracheobronchial
##eiler
##uteter
##zeß
Bildverbleib
Parenchymart
##häufigkeit
Spas
##metabolismus
##schu
erschwer
verblieben
quantitativen
##verkehr
osteolytische
Interessanterweise
##vatur
Vorgehensweise
ausführlich
Cyt
##fahrungen
Orbitab
differenzierte
PO
Mobilisation
##laviculär
Infiltrates
P2
Pulmonalarterien
erfolgter
abgeleitet
##ahyper
unnö
##rolle
hemmen
Kritik
Tibiaplateau
Isthmus
gleichzeitiger
ausgewählt
220
Hochfeld
Juckreiz
Lungenunter
Ischäm
##oppel
Nord
##In
##drücklich
Konzentrations
Vorwölbung
Pum
##ytische
schützen
Berliner
Transamin
Monozyten
##ded
##gens
##prolifer
mitabgebildete
Calcium
ganzen
##YL
Dislozierte
iliac
##arterielle
reflek
Fax
Ann
euthyreote
paramediastinal
sitzen
##verbrauch
Flexion
PPPD
Abschätzung
coron
gewechselt
Festlegung
ausgesprochen
Kochsalzlösung
platten
abgegrenz
##gefüllt
##uchten
Vergleichbarkeit
148
unerwünschte
##rezeptoren
adäquat
##ventil
Entscheiden
Unruhe
fühl
Befundübermittlung
solit
Ummauerung
##nehmlich
Malformation
bl
##geschrieben
Marklagerläsionen
interstitiell
Hygrom
molekularen
therapeutisch
Vorrangig
##auchte
Außenkont
internationale
spinalen
##zeug
##zed
chrom
##wahrnehmung
Bakteri
erleb
Leukämie
##ized
##2Fall
Ev
MHz
##ylierung
orbit
##konzentrationen
kontinuierlichen
Stentimplantation
##peti
Duplex
Clinical
veröffentlichten
Rückenmark
zugleich
##suspekte
stamm
Lymphknotenvergrößerungen
##themat
Verläufe
Erfas
periprothetischen
##gerten
basierte
Amyloid
Leider
##ics
##ampf
intraartikul
handeln
##weisungen
Ergänzung
##oman
Mikrobi
Positionierung
erniedr
Lehre
2013Labor
irreversi
rob
deutschsprachigen
##alerweise
GO
orthopäd
laterales
zugänglich
schul
##309
apikaler
##agonisten
ophthalm
aufgeklärt
Mask
Diffus
potenziellen
##versich
häufigen
adjuvanten
##mitglieder
##luft
Organk
##ther
Wirbelsäulenganzaufnahme
Rhizarthrose
Tb
Bauchdecke
dauerhaft
schizophren
paranas
neuaufgetretener
Bevölkerungs
darum
HL
NT
Langzeiter
Verhaltensweisen
##schwäche
pdf
Bünd
##RP
diesbezüglich
##vermögen
Behandler
anschließende
##gerter
Laparotomie
##falte
Kurve
##induzierten
möchten
##ordnungen
Vermitt
rheumatoiden
Gle
korrelieren
dritte
##zentral
Karies
Kleinste
##immer
Inkarzeration
resultierenden
##wärts
ACT
##eitlinien
##auso
Dissektionen
metabolische
segmentale
Aufrechterhaltung
supracarinal
intracraniellen
Masch
Entsprech
Maxi
angesprochen
anhaltende
Abszesse
jederzeit
Pub
lat
##szone
Lungenanteile
erweitertes
Serotonin
Aufnahmenummer
lernen
angelegte
fraglicher
##ori
Rektumkarzinom
##endel
absoluten
##begriff
venöse
Fibul
Adrenalin
konkrement
##struktion
limitiert
SPACE
Hann
Aufenthalts
periventrikulären
187
neonat
##ritis
##ürzt
auftra
vierten
##enkn
##zidiven
Pause
Größen
Schilddrüsenmedikation
##000
Eminentia
te
Ängste
bnahme
innov
erfolgreicher
Basil
Wur
##korrel
Impfungen
Abst
##undibul
Prostatitis
Beteiligten
geringfü
Messwerte
Lager
Nebenschilddrüsen
hilus
C1
Differ
medull
##neurys
##iod
TIPS
Tendin
hypervaskularis
Bad
Verbrauch
regelmäß
Sitzungen
Rekanalisation
spezialisierten
##62
cavo
Selb
Ingu
##ovis
Silikon
##gefallen
Summen
Anbetracht
uftrags
fühlen
##ätzliche
elektro
therm
Verarbeitung
0313
osteopener
konnektierten
##vir
notfall
##häm
##trepanation
Filtra
vorstell
Schambein
##partner
##laviak
place
Apop
allergische
Whit
mind
Wiederhol
##aref
Schmale
Nierenpol
DCIS
Störung
Laborchem
optimal
Programme
Ossikel
##regung
internus
schlechtere
angehobener
TPO
##materialien
Abgangsnah
##iglot
Hon
##gelenken
gefragt
##istance
Falx
Deg
kurzfristige
##laviakatheter
##stritten
persistierenden
train
##ago
MED
deskrip
##scheide
maschin
Verdachtsdiagnose
##fläch
CH
##iro
flauer
Odds
##amik
##anzahl
selektiver
Regelm
ursprünglich
Musik
ment
Blutverlust
Ossär
differenzierten
Innov
übernommen
##patient
Knochenstoffwechsel
##ordination
öffentlichen
fehler
##ugh
Rektums
Reliabilität
##beschreibung
kollab
##einstellung
Ganzaufnahme
Samenbläschen
Lipom
##x10
beeinträchtigen
Myokardszintigraphie
##reulich
##eingriff
portalvenöser
##scheinungen
##langsam
Diarrhö
##reibungen
##ädag
##wachs
vorbeschrieben
Tamoxifen
Inhalation
##konflik
##regular
Gewebs
Sam
Entlass
Standardtherapie
Linkskonvexe
Nähr
Nephropathie
veränderte
Part
Raten
Geburtsgewicht
Divertikulose
postprand
ADP
Quellen
temporalis
Palliativmedizin
Daumens
##oplasma
jeg
##deutlich
##bok
##okarditis
##ovirus
hör
drohen
Areals
Thrombektomie
me
##fluoreszenz
Minimum
##entor
Allgemeine
141
Röntgenbild
##emmt
Insel
atop
arteriosklerotische
ärztlicher
bemer
NHL
Kontin
##hindernis
okkul
Aufklärungs
##junktiv
legt
atri
Amputation
##Beurteilung
münd
##ortic
##syst
ermitteln
Puffer
var
dystelekt
##glomerat
##ological
intraabdominellen
1960
Koordin
##wertes
Gesundheitsförderung
##ystems
Persis
Partielle
##valle
Durchleuchtungszeit
##ieht
Absenkung
offensichtliche
renale
Liegendaufnahme
Oxygen
Fläche
Abteilungen
Darmer
##clearance
differenzieren
druck
hält
Wirbelsäulen
Dissemin
Abstra
Fettsäuren
##okine
##kräften
Frankfurt
Verweildauer
liegendem
gastrointestinale
##itäre
demarkierenden
echoreiche
##63
Bronchiektasen
##oprothe
AE
##sa
##mere
Periost
Verzicht
intramamm
##odynamischen
##O2
Cross
##vollen
Massen
Mineralisationsphase
##berger
Fortbildung
parapelv
Leg
P1
##recherche
Rheumatologie
blo
Ausrichtung
Geld
prall
okul
##erin
##verhaltens
Monats
##attel
##otomien
over
Absprache
PSI
##alia
dedi
##erhöhung
Köln
Einordnung
Studienlage
Mehrschichtspiraltechnik
positives
Lymphommanifestation
schein
Halbwertszeit
stehende
##elektro
##ostatin
kre
Kompens
Feten
##orbital
##ization
##spatienten
##hemmung
##AE
Koag
hilärer
##CRYL
Expl
Synovial
##ove
Foc
VICRYL
##iop
##covery
mäßig
Teilen
lan
Schwangerschaften
##ustellen
Apl
##lad
##rogene
Indikatoren
##geburten
Müdigkeit
##echose
Bewegungsartefakte
##genauigkeit
##ampsie
##glyk
##urgery
##ondr
morphologische
nochmals
bestätigte
Prominenter
TG
Teilresektion
Entfaltung
##aryngeal
Planare
Geschäfts
pädiatrischen
Sterile
forder
LC
SRS
kompletter
Großzehen
Konsensus
Diskreter
rö
Hinterhorn
Ihrer
reichlich
Hans
##ilden
Stammskeletts
##3Fall
Gesundheitssystem
biomechan
##tilität
ovar
EBV
schmale
Leip
gerecht
Journal
##abweichungen
True
FEV
BIRADS
Pedikelschrauben
Riesen
Verank
anzahlvermehr
##öhnlich
PIC
Gefäßen
Klärung
##zigen
Hybrid
##fre
##icherung
Verabreichung
##ton
Flussgeschwindigkeit
negativem
##IM
##ktionen
definieren
Einm
infizierten
schen
Reaktions
Brad
##bedingter
flächende
##stru
##iotische
##uskul
beantworten
Szintigraphisch
Käl
pontifiz
Atemnot
##ael
echoreiches
involv
hepatopetal
lotrechte
##schadens
Fruch
nuch
Feststellung
##eilt
##ivacain
##osy
Flor
##islang
Szen
Spr
IG
Krea
Nachsinterung
##öpfe
##spirator
##spunkt
USG
##onukle
Schwimmen
hämorrhag
Arzn
CYP
pneumoniae
##vorteil
Trotzdem
Bezeichnung
clin
##flussstörung
hiervon
genauen
psychologische
##FI
Schnitte
Generell
Dosierungen
richtigen
rekru
Lebensstil
##urose
##gewinn
Ohren
Prozessen
##tigem
##ittels
##materials
##unkl
##mental
Polymorph
Bislang
##arität
atemverschie
Axillär
Ausziehungen
günstiger
Aplio
##ordneten
##neuropathie
##einlage
Nephrolithiasis
##schlüsse
##dilatation
##profession
##fekt
genetisch
Subcutis
Fortsetzung
Bullae
138
##rachten
Angesichts
mittelgradige
##paratur
##ült
##bride
kolorektalen
##beruf
setz
Mithilfe
##bem
Fakult
##schem
##flüssigkeit
Tom
steigern
spontane
Sekretver
Verkalkte
Schnittbildgebung
täglich
kaliber
anf
basieren
##sprungs
Hohlorganperforation
##oprothesen
Übersichtsarbeit
1950
Kommunikations
##ho
Jahrhunderts
Sentinel
Bewohner
##schwelle
Steuerung
Tumormanifestation
Verlag
Straf
Antibiotikatherapie
wandverdickten
frontobasal
konsol
##transplantat
Migrationshintergrund
Episode
##92
Gegebenenfalls
aneurys
Therapieent
##atisches
EASY
hypoech
Spina
CRT
##ctin
Jo
Niedrigdosis
suspektes
##rost
##intervall
autosomal
Hebammen
männliche
unerwünschten
cervikalen
Drüsengewebe
Untersuchungstag
Gleason
Immobil
Vakuumphänomen
Namen
Tumoraus
Korrespond
Staats
##rück
florider
##flow
Teile
befallen
##äume
##open
Teilsan
Rechnung
Analgetika
##izze
##vacizumab
cells
central
Mikroskop
##sprengung
Gastrektomie
Müller
Zö
##phän
Genexpression
##biopsien
M10
TGF
##bedürf
intercondylaris
Zahnersatz
Mobilität
CPAP
Zwill
Kinderwunsch
faec
Technologie
Rezidivierende
CCC
##ators
übersehen
Rituximab
Füllungs
Escher
Entleerung
Fibroaden
skleros
##schema
##klassen
##publ
Gliose
##cit
ill
Strahlung
bekanntes
erleichtert
Epiphysenf
Zunge
##anstaltungen
Reihen
Gö
seel
Atlas
getragen
##steil
cortic
##ausdehnung
parotis
metastasensuspekter
##ozyste
##gesteu
anschließenden
##indlich
Hygien
kraniok
begünstigen
Zytokin
##präparaten
Lungenkreislauf
Wundabstrich
Avul
Neuropathie
zukünftige
##DR
##lasten
gesti
seitlichen
stationärer
##ckel
##utertom
Gü
Alten
State
##ürk
##parametern
##falten
metastasensuspekte
##oduläre
1985
orientierenden
cancer
zugeführt
Herzkonfiguration
##pturen
Kommission
##lindamycin
Stellungsver
Industrie
##äts
##ichia
Filter
Gefühle
Zenti
##rehte
Verschluß
##bokontroll
entzündungs
fertig
Leberteilresektion
Signale
Joh
os
Zusätz
Titan
Davon
##mobil
##alzyste
##lenkung
aufgezeigt
Bund
Response
##Path
vereinbaren
Ed
155
##indik
Motil
mM
##usche
##occip
Korpus
echoreichem
kortikaler
Rezeptors
kindlichen
##spalts
##otid
Mediastinale
##Sch
##üre
##alisationen
einsetzen
neurovaskulären
Betreuungs
alpha
erosiven
##GB
##VS
Masse
modul
cost
##lernen
##aturie
Box
geschul
fibularis
erosive
##imoto
Epiderm
Abszessformation
PPI
##ungsrate
unspezifischen
überlagerungs
Befundverschlechterung
##onist
Grundplatte
##cend
Letzt
nationalen
Förder
Piperacillin
dichte
Insertion
Star
##ertes
Kollater
Fleckige
Hirnstamms
mangelnde
Leckage
##atisierte
Werden
Lamina
leitlinien
##IE
mitunter
Begründ
Corticalis
Depressivität
Vom
mL
##reiß
beherr
Ereignissen
Krisen
##phro
##durchschnitt
Orthopädie
Bevacizumab
##infarkte
##ectoris
##ähne
##reste
Ventrikelweite
Primär
paraaortale
erlitten
erythemat
##natal
##ufel
Chronischer
##grammen
##angiom
##öpfchens
Clau
##liegendes
##issue
cavern
eingebrachten
bakteriellen
Katheterverlaufs
aufgehoben
##phinkter
##nektion
eingeschlossenen
##ystag
Kontrolluntersuchungen
Notfalls
rez
Lith
VFC
Partial
Säuglings
komprimiert
Lymphknotens
Taub
Arbeitsgemeinschaft
##echt
Auseinandersetzung
daraufhin
erniedrig
##DNA
Mediastinums
Hash
1986
Hernien
##ekl
Sofern
Gangl
Renten
Axilläre
##hof
Dezente
emotionalen
Älter
##instrumente
Bab
Urolithiasis
erwachsenen
wirksamen
##ichen
verwand
##fällt
SK
##fa
##ures
retrogra
##regel
verlaufen
gewonnenen
##usste
Stoffwechselsteigerung
Cefuroxim
erinn
##mid
Neub
Valsalva
Zulassungs
GG
biochem
peritoneale
Vielmehr
Mediastinals
##defizite
apikale
spätere
Bilddatenanalyse
longitud
##lagebed
periartikuläre
time
165
relativer
Escherichia
exp
wäre
erhaltenem
Schilddrüsendiagnostik
Erbeten
Eintritt
##schiene
Bewertungs
##ürzung
erarbeitet
##koliose
frontale
eingeschränkter
postpart
absz
Kann
Früh
Bedarfs
##iater
##inalis
##lini
##bolus
verlassen
Revaskularisation
ferner
##otika
Hormonpräparaten
sonstigen
asp
##ags
Fallbeispiel
##ultiv
durchgreifender
1c
##ognitiver
Prur
platziert
##Cefuroxim
wichtiges
steriles
Überlebenszeit
##variante
trotzdem
##lingu
Bup
Genen
Hinsicht
Enthesi
##ausbildung
perfor
##praxen
Abschw
146
##MN
computertom
van
Teilhabe
Handgelenks
aufgelock
##esik
Defekten
##file
139
Allgemeinbevölkerung
palpatorisch
belüftetes
Mittelpunkt
Jede
##orts
eröffnet
##öpfung
enhancende
##strain
Sac
erleben
basilica
4a
##anpass
##plaques
MMP
Spätphase
Internis
Gegenüber
rundlich
##zyg
##dos
versuchen
##ME
##schwanger
growth
verstärkte
Thyreoiditis
Cephal
Gutachten
Zigaretten
Cochrane
##atztherapie
Det
vorbehalten
##vors
##stom
##öll
Flußsignal
Intelligenz
##gendes
Relativ
multisegment
korrigiert
problematisch
konturbildenden
Child
nachvollziehbar
##ehabilit
Therapieansp
142
##izei
größer
unzureichende
erleichtern
##plement
frem
##uens
OPTG
generalisierte
multinodosa
Akuter
Auftrag
Arachnoid
##assel
visuell
use
Therapieerfolg
Hüftgelenken
Kombinationen
gland
entstand
##haltig
Randbereich
##level
Fibrom
Präsi
Ischämien
Heterogenität
Thiam
##azin
Verkürzung
Untersuchungsplanung
##valuation
Versatz
Letzter
Knickbildung
Bez
Cholangitis
FAI
transplan
##orator
Salz
Bau
##icans
Varus
Akten
##apularis
physiologisch
##opharynx
##GRAPHIE
therapieren
inkrem
Abstoß
Rechtes
##oembol
Oberlappens
##bal
jene
EGFR
Ze
12Einsender
atemverschieblich
##vus
##kennt
##atelliten
##vertebrale
##pneumothorax
Betten
Eck
rheumatoide
##72
TLR
Koller
##terter
##kalibrig
Bezugs
Vakuumbiopsie
Messer
dermat
Mehrfragmentäre
neuropsych
Sklerosierungen
Zellkultur
wissenschaftlicher
weibliche
Bili
paar
Chromosom
neueren
##deform
Leberste
erkennt
gefördert
##legter
Berechn
Imipenem
Dimension
carcin
detaillierte
familiärer
Tibiaplateaus
##inne
Kontrollaufnahme
arthritischer
##halamus
ACVB
ple
steu
##arealen
Wahr
pathogene
##MR
##dress
ischämischen
Verhinder
Diskrep
Bü
verfolgt
gastrointestinalen
Lageb
Supination
##ulator
##ignal
konsolidiert
Prädiktor
##lit
ersichtlich
##osplen
Studium
##VAR
##brust
Bronchien
Eye
Artefaktüberlagerung
Testosteron
Abge
Thomas
Ursprung
Regredient
gehäuft
Süd
einzusch
Subileus
Prior
Whitney
2cm
##instrument
Lateral
Temporal
Subtypen
internae
##eitenden
treatment
posttherapeu
##riere
cap
Materials
konstanten
##foramin
Unterkiefers
ergänzen
##ubstanz
Blutbild
##oraus
kardialer
##sud
##69
Katechol
größerer
##änen
OH
##angiopathie
Disziplin
Schuld
Uvei
Fusions
hypox
Artefakten
leer
##algorith
individueller
Dy
Lungenödem
##üchtern
NY
vorstellen
präs
Idem
Politik
##enkarzinom
Linkes
flache
essenziell
##eduk
Minderperfusion
Psychotherapeuten
Thiamazol
erwarte
gelangen
demarkierte
nutz
letztendlich
Latenz
versteht
aktivierte
kontralaterales
##auter
Leberarterie
epidemiologischen
##aortal
Start
Metform
May
Datenerhebung
etablierte
früh
flow
Anlass
array
wenigsten
Vorbek
Transaminasen
EG
Prell
Regelhafte
umgebender
Schlafap
Besuch
##indert
Meg
Vorbesch
Zuge
Liegt
Jochbogen
##zubilden
Pig
##64
geschätzt
neuroforaminale
Persp
dediz
##ibierungen
malignomverdächtiger
Gestern
Fibroblasten
##ions
geringgradiger
Linien
Ileums
thalam
Unterbrechung
adäquaten
##maßnahme
bul
##ablagerungen
Schwangere
CD8
##ussten
Besatz
rekonstru
##armen
Einmal
##gluk
Ili
femoral
Pflegekräfte
zuzuordnen
Subak
Kontrastmittelanreicherung
##fähigen
oxid
##idi
Bizep
Heft
Bereitschaft
Auflage
##stimmen
PECA
##ctal
##tizip
##oviren
intrarenalen
##bewer
bele
##ehlung
lobul
fass
##systemen
##fon
Auswirkung
Fallser
einfacher
557309
##komponenten
##iosis
septischen
Kit
mu
Cine
mikroangiopathischer
##annungs
##Pathologisch
Cast
Magenkarzinom
Penis
Feedback
follik
berufs
inkubiert
##gebende
Ulcus
Mangelernährung
TIP
Pflegenden
thorakoabdomin
Gestaltung
braucht
Cycl
no
progressions
Leukencephalopathie
##anamnestisch
Rückfall
##Im
Gegeben
Angefertigt
##otrex
##rigierte
spp
##apro
molekulare
Krankheitsaktivität
Studienz
exakt
schnellen
nekrotis
resorbierbarem
gehabt
sternförmigen
abdominelles
umgebende
##omorphologisch
vornehmlich
Kontusionsherd
Krie
##cetam
Anders
##inhal
##ability
vollständiger
endoskopisch
##olinium
sinnvolle
##übung
bemerk
Helfer
Trennung
Ausgabe
##rica
Hüftgelenks
periradikuläre
errechnet
Urethral
funktioneller
##sprüch
längerer
##orbi
komprimierbar
Bündel
sequenz
Chancen
##merkungen
##Station
SB
Entbindung
Übergangs
Zurzeit
Fla
erfasste
##gängen
Drüsen
##ösophage
einges
Rezidivrate
Perzentile
laparoskopischen
##umung
##ymmetrisch
gestaltet
##wirksam
insuffizi
Fachgebiete
Wertes
##stiges
##gehörigen
übernehmen
effektiver
##orbenen
##atsat
Merkmal
richtung
endend
##mentation
knotige
gleichermaßen
##inin
##ahren
##aban
##alteten
resorbierbaren
Inkubation
Cov
moderne
Wärme
anonym
Peptid
##zessen
##oxon
gestützten
Notfallmedizin
Hannover
##ruh
##tizität
Statische
gemessene
##assung
normalem
breites
Beckenboden
fung
Intestin
Kontrastmittelen
Antikörper
Arten
heredit
Indikator
palliativ
Normwerte
Endoson
Dreh
gesprochen
Venenkatheter
Arbeitsgruppen
Lebersteatose
##tikeln
Pfanne
Thrombosen
verdeutlich
Willen
zement
0C
power
143
postop
Anis
Hypothalamus
##defektes
Schmel
Arth
Hashimoto
##Befund
##icc
Begriffe
Glaskörper
Zystoide
##geweb
Fisch
Qualifikation
##merkmale
Gefahren
fatsat
##tiden
erzeugt
185
1x
identisch
##hift
##Ca
Durchgeführte
Ganzkörper
PCI
lösen
extrakorp
medialer
##ristall
imponierender
Biof
lumbalen
Lymphknotenmetastase
Lufteinschluss
skol
##agne
milde
frontotemporal
Away
doc
intrauter
gerechtfertigt
LL
verlaufende
rechtsbetont
Harnblasenkatheter
PN
Deminer
achsengerechte
konsekutiven
##ansammlungen
dekomp
##transporter
zementierten
Ellbogen
Erbetene
##ozytopenie
vorzu
##agramm
##ontrol
Komplement
IGF
##T1
##ungsgemäß
##bestrahlung
Sensibilisierung
steigenden
beidseitige
##itoring
Tracheobronchialsekret
Quotient
Studenten
gewichtsadap
intrab
Glomerul
traumatischen
##ofibrom
eingeblutete
Unfallchirurgie
glenohumer
##amethason
behandlungs
NCC
Hemikolektomie
kleinerer
German
Immunsystems
##stests
beiderseits
##ilia
##plasien
pharmakologischer
Konstantes
##imetern
syndrome
Dysarthr
Entscheidungsfindung
Dro
acc
Geröll
Schwäche
##gebieten
Altersnorm
##Mit
Anerkennung
markierten
Duschen
##ythromycin
Spitzenlage
retikuläre
genauso
Stellungsverhältnisse
Universitätsmedizin
Verantwort
Lun
##oxikation
tes
##rone
##säume
Schulterg
Nierend
Myokarditis
Doppelspule
publizierte
Leuko
Null
Subgruppe
Konturen
Vergleichend
##dies
##Charité
##behör
##xperimen
Grü
Laminektomie
stumpf
Täter
Gynä
Pädiat
##äische
##tionsrate
Hirnbasisarterien
müsste
GP
##ja
leber
EO
Over
##anth
##schungen
##obie
Textur
Subduralhämatom
##elles
##hab
Hirnt
Zweitmalign
147
aneurysm
Solche
IVb
abh
schwerwiegende
R1
SCT
##estens
Methotrex
subdiaphragmal
##ungsstörungen
Nasenseptum
inser
BLA
Rejektions
##behandlungen
therapierefrakt
betragen
Mischbild
##alisten
##trä
##eugen
Endokrin
Krise
NW
##dy
RM
##osid
hochgradigen
Dorsal
##frageb
schwierigen
Minute
Tremor
gelungen
Teilinfarkt
##betreuung
Erkennen
intravenöse
IOL
erschien
Indikations
Life
Wertigkeit
##äste
vaskulären
Bioph
hypoplas
opposed
Bandscheibeninter
laparoskopische
Moment
like
##bodens
##finger
Parese
##behalt
infrarenalen
Rad
Risikopro
##abbruch
Kraniotomie
##zygos
Instrumenten
Anlehnung
##lumen
amp
Vorläuf
Endothelzellen
kognitiver
allergischen
nodulären
##prävalenz
Öffent
Xyl
proinflammator
Betrieb
variiert
##dientem
ursächlich
##Le
Prävertebraler
variieren
Sommer
Hepatosplen
##Vorbefunde
##brit
aufsteigend
Kandid
Fehlhaltung
traumatische
femoralen
cervicalen
Privat
Vorkommen
##omplex
Enzephalopathie
Sand
##kontrollen
##x7
##teln
##pfel
Revisions
Tagenmedizinisch
Wett
schritt
BDA
Minderspeicherung
rheumatischen
Harnwegsinfekt
Research
Kauf
intramuskul
Hitze
linksseitige
meinen
supraklavik
Randsaum
Emotionen
Neutropenie
addi
##ish
angeborenen
transform
Lungenperfusion
Glyk
grampositive
pectoris
##stherapeu
Erhö
Bechtere
Klassen
FSE
vernach
Vertrauen
##einleitung
##transport
Astrozyt
derartige
Dokument
##kra
Flüssigkeitsspiegel
Exazerbation
Metformin
##ozervik
##idus
strukturierte
wünschenswert
TRA
003
Polypöse
basiläre
##tigkeits
Wildtyp
Triggerung
Lymphozele
Millimetern
Manip
##spender
##änderungen
005
##adäqu
Individuen
##mpfen
Realität
##itinib
Ventrale
##issionen
##ararterie
NAS
beschwerde
Urteil
##talien
Parodontitis
deutlichem
multires
StuhlGeb
flüssigkeitsgefüllte
Flüssigkeitseinlagerung
##astrup
##überschreitende
knöcherne
nuc
##augen
Retroperitoneal
Relax
Vaginal
Autoantikörper
verschie
korrekter
##gebunden
752
heutzutage
Wirkstoffe
Martin
geänder
302
verknü
verbundene
##abet
##ochle
verbracht
Verbands
stimuliert
Lückengebiss
Tracheostoma
TNM
##ponade
aussagekräf
Optikus
Augustenburger
pulmonalarterieller
geschwollen
##jejunostomie
Lt
Spondylolisthesis
##kumulation
Funktionsstörungen
##ffung
##bezug
##ctur
schilddrüsenspezifischen
Präparation
zeitgerecht
gesagt
sekundärer
##übungen
##raumes
alleinigen
ovaläre
Bilirubin
##skopischen
Cannab
##ammern
Neuronen
Seine
Atmungs
##rü
Christ
##reservoir
Michael
##izierter
regelhafte
Bechterew
##ästhetika
rechtsseitige
Amb
Leidens
blutungs
Handlung
auslaufend
##ektoren
Auswurf
Nierenloge
Linksherz
Insofern
Bud
Sludge
erheblicher
##amera
##bestehend
Maj
Letztere
Ausführ
Weichteilen
Erkrankten
##chel
Tbc
##chst
abl
Formationen
Gefäßverschl
##ahyperplasie
pseud
Hepatosplenomegalie
##bringen
##brüche
zerebraler
palmar
##wichtung
hintere
Psychosom
##rugen
hierunter
##ünstigt
eigentlichen
dich
Gelenkes
single
Modells
##9551
intrabdomin
potentiell
##wertbar
Progredient
diente
Hyperdensitäten
##sättigung
jodhaltigen
Hein
Vertrags
##cept
LM
Kaus
Flanke
##romial
iliacalen
Geburtshilfe
pers
distendierten
174
erforderliche
##werke
Tragen
Kortikale
Zeh
Befundbesserung
##odegener
##unterstütz
Bildqualität
No
Nähten
sexuell
Geschwindigkeit
##idität
##odent
prävertebral
##TEP
Dysarthrie
Spiegeln
176
entnehmen
qualif
echoreicher
gingen
##schwindel
Deckplatteneinbruch
##areals
##imumab
appara
Verschiebung
##maximum
sor
##RH
Herniationszeichen
##zusammen
##dimensionale
##olt
Stammzelltransplantation
##ikusp
Gallengangs
##üren
##öhn
Schrift
massiven
Tempora
HER2
Klinischer
##ham
997
##vereinbarung
Literaturrecherche
319551
Pseudomonas
##odors
##gesprä
Plaze
Medicine
##ZV
##verdichtungen
induzieren
Ausblick
Methotrexat
zirkuläre
Nebenwirkung
##kalzifikationen
bezüglich
Penicillin
Antrag
##räf
##invasiven
verletz
erwähnten
ERCP
Positron
##olia
##oides
pT3
Tarsus
verändert
moderater
Beckenskelett
##zige
0A
KH
Leichen
kontralateralen
Einhaltung
Bestimm
effektiven
##istribution
Zirkuläre
##hörner
kommenden
##uzumab
##herden
Baastrup
Schallauslöschung
orthograd
ständig
miss
Kompart
intraabdominal
##zylinder
N0
Platt
Easy
tätigen
eignen
Knochenmetastasen
gestalten
##alisieren
##charakteris
ITSEinsender
Daraufhin
1984
##unger
gespült
Cavum
Kreis
##sterben
symptomatisch
Laborchemisch
##uris
##marke
##proj
verringern
##technet
Diffusionsstörung
Insulinresistenz
sicheres
##stes
Clostridium
Bauchlagerung
definierte
Kost
##ieb
Verhaltenstherapie
##ambulanz
##ranon
umfassenden
##einengung
##osol
Darmpass
Bohrlochtrepanation
##iktur
Chor
##duoden
##einschränkung
##herdes
##avirus
konkrementfrei
##ystagmus
retropatell
Angiotensin
##dri
Opioide
##auten
##orthopäd
position
Leipzig
les
##forderungen
dünnschichtige
##aboli
##odont
abgrenzbares
##haltigem
Erhebungs
##xon
verlängert
##tritts
Regelungen
##skor
Bildkop
Zervikale
##idural
##pofol
##banken
Vermittlung
##astes
weiterführende
##Cs
ka
##eitungs
##core
verstärken
Fadenmaterial
##altete
319640
forens
##uble
Azetab
ubiquitär
##markt
##urve
##lospor
##technetat
##ünsche
##anreicherungen
teilnehmenden
##otide
Bettruhe
##modellen
metacarpale
Clop
##tiva
Auslaufender
##führt
##ford
##ausschuss
Toleranz
sterben
##skrankheiten
##änz
##synt
##gerechnet
Unterstützungs
tibialen
S8
SW
##verstär
Laparoskopie
periprostatischen
kardiovaskulärer
##linientherapie
Vorsicht
beraten
eru
Diffusionswichtung
Ablations
Größenregrediente
sofortige
herd
##mpfe
umfasste
##ook
##trast
##rücken
Wash
Retrosp
sozioökonom
Auswertungen
##bewusst
verank
##aggreg
##ehens
Differential
hei
konfron
##wider
tatsächlichen
##ids
Springer
Intrakranie
intrakutane
Pfann
infrac
Narbengewebe
##oxetin
Teilinvolution
akus
Neues
319641
##plat
##wecken
matern
##otiden
Antikoagul
##lösungen
nachweisbare
Aer
##sskoliose
##große
##arr
IPMN
##1Fall
##ometrischer
##ramycin
##ebene
fordern
##oxygen
Koronare
formal
gesc
Retrolisthese
Blasenkatheter
Stenosierungen
##oxidase
##osex
Koordination
Ophthalm
Effekten
Seitenlappen
ambulanz
Erwerbs
bir
Bronchoskopie
##dosen
Nikotinabusus
Hu
litten
Immunhistochem
Kontrasti
##oven
Medulla
fördert
vorderes
Veröffentlichungen
##haltender
Parenchyms
##greifenden
##gart
169
entscheidender
Mikrokatheter
##agung
Hypervaskularisation
einzigen
##äuß
Hautveränderungen
Krankenhauses
Pertechnetat
erscheinenden
##VIBE
Interventionsgruppe
##ras
##sson
Sinusvenenthrombose
zeichnet
Nasopharynx
Entscheidend
Tabletten
Einzelnen
regelmäßigen
##quivalent
nl
automatisch
319551Serologie
Mediziner
##leerungs
Demgegenüber
intraspinal
verschmäler
##räumen
2012Labor
verdäch
dynamischer
Uveitis
Pau
##rittel
chronologischen
Border
Therapieansätze
Kompartiment
##yal
##roli
##ilobuläres
H2
##asark
Endole
149
Af
Proteinurie
Nutzer
Freizeit
aktivierten
Bewusstlosigkeit
registriert
##annien
Akutes
##llage
vertief
onkologische
G1
##hälfte
Pulmonalis
Psoriasisarthritis
TER
schilddrüsenspezifische
Proteinen
Schwester
##wachsen
Fis
einnehmen
Differenzen
Elast
Konus
Änder
perirenal
Adnex
zugenommen
resultierende
Verhinderung
Häufigkeiten
Zylinder
aufgeführten
Einklemmung
Pneumokokken
##iose
Unsicherheit
belastet
Enterococcus
##operations
Gated
Subj
##gehender
##han
Flächige
192
doppler
Eiweiß
##nephrektomie
##morb
Vorstellungen
familiäre
319640Serologie
Pflicht
Hydrozephalus
##zialis
Reduzierung
##endruck
##digen
valide
Positronenem
regredientes
Pä
Pekt
Domäne
R93
##anteils
arterio
University
##osklerotischen
##IL
Herzachse
##ruchs
##zolid
Kehl
Großbrit
Bemü
##drück
Propofol
aufgebaut
210
##gehörigkeit
osteopor
##eklampsie
##oidal
##ötchen
Mukosa
Gehalt
Nahrungsaufnahme
BLADE
Dünndarms
2012Klinikum
ro
basierten
##ügel
##ection
Krankenversicherung
##wellen
Gesprächs
##ersatztherapie
computergestützte
diabetischen
pylor
##Pil
begünstigt
Myom
Clopid
##schende
Krampfanfall
Stutt
##osoph
geschäd
Lösungs
##populationen
Flüssigkeitsgefüllte
Bindegewebe
##sA
##omid
medikamentös
transm
cavoatrialen
Iso
##stuhl
##obramycin
##schub
definitive
##ymnas
##anner
schlechteren
postentzündliche
selektiven
herab
##obakterien
##pfanne
Großbritannien
Abszesses
kontrollieren
Nodulus
Lebermetastase
Bestätigung
##divertikulose
psychologischen
widersprüch
Details
portalen
verlegte
##Clostridium
aufeinander
Enzephalitis
rechtsventrik
Pigt
unterer
circa
##entrifug
Seitens
##aun
Ileostoma
systolische
Erosion
##jährige
##faser
##veill
##arachnoidal
Institute
##glot
optimaler
##heitlich
Grundphalanx
##appara
prophylaktische
cerebrale
##arien
Residuum
SO
##ministra
Tracermehran
wöchentlich
erworben
Aussparung
##präsent
Cop
auseinander
Schilddrüsenanteile
Beckenkamm
engen
##ädagog
##sitzen
BV
geschieht
Bronchus
betreut
Pyle
##zungen
##ogrel
psychotherapeutische
Positronenemission
##mortalität
##bleibt
Pilzen
##gift
##tebro
##unfähigkeit
minimieren
Glück
Mediastinalshift
antibiotische
̈fer
Prop
Paravasat
Risikoprofil
Group
gezielten
Infundibul
Reperfusion
Greulich
Abdomensonographie
##ivalen
freundl
##ktu
##ognitive
kiefer
173
Liege
##zut
problemlosem
Zusätzliche
##olitis
Sitzen
Strecke
##orad
##sivität
##aning
##serguss
Postop
Meld
Erregern
##potenzial
##gericht
aufgetrieben
sinkt
dosis
Überganges
kurzstreckige
normalerweise
mikroangiopathisch
Geburten
##com
##ocy
Patientenversorgung
##ochter
Steilgestellte
psychotherapeutischen
Rekrutierung
metall
Unterfelder
Massive
auswirken
wiederholte
depressiver
minimalen
TUR
Anmeldung
##via
akzept
##tod
##zystische
anlagebed
##indiziert
care
Morphin
##rolimus
##bares
##sekretion
diverse
Resistance
somatischen
Xen
##raktion
Unver
Titel
##unkten
HWI
gesicherten
Lib
##odialyse
ileum
Unabhängig
facialis
Paris
bestra
Einstellungen
Chlor
##ulegen
Navigation
##EK
##verhältnisse
Säuglingen
gere
Beinachse
Apoplex
Fig
Nachfolgend
Pupillen
neuronalen
##periode
respiratorischen
##seffekt
bilde
mittelständiges
simultaner
parac
Stimulations
Arachnoidalzyste
Konsekutive
hilusnah
##ogenem
##arium
##losporin
##lakt
162
Ulkus
Ausscheidung
zuverlä
kosme
##bridement
ersetzen
##projekt
Malignes
Fehlende
##ochondri
##facher
Abszedierung
Erscheinungsbild
##skizze
Fertigkeiten
5000
##osider
Bewegungssegment
Follikel
Appara
tse
Akadem
Wind
Weder
insofern
152
##kopffraktur
Enzyme
Deckung
Infiltratnachweis
##renn
komp
Gebär
Hypotonie
##trennung
zumal
Schmorl
semi
Betonte
Bogenovale
peripankreatische
elas
##atisierten
asymptomatischen
Pubert
iliakalen
Transkriptions
##benutzung
##ochirurgie
##Keim
vermeint
Validierung
Karzin
sa
Wandveränderungen
##anpassung
Biopharm
##gebrauch
Störungs
CIT
##reibt
manche
##gefähr
Ausläufer
##bial
##epilep
Heart
##äufig
HTQ
bildgebender
Sofort
Periventrik
Primer
natur
Herkunft
Tester
verdeutlicht
172
PAVK
Appe
erkennbare
Untert
##haftigkeit
##gelenkes
festen
Auftretens
Kontrastmittelenhancement
intracereb
Arme
sämtliche
rem
##odyn
Erholung
##inhalt
verwiesen
##horakalen
##tsam
Intensivstationen
Dissozi
##zeichnete
##ärztekammer
##standards
Coiling
##stents
zertifiz
##aresektion
unmöglich
geschützt
finanzielle
heil
##cil
##riger
##dic
Nuklearmedizin
##abges
systolischen
##itätsunkl
dokumentieren
Todesursache
Clopidogrel
Ursprungs
##unken
##okarp
Endotrache
expon
Volumina
Inklin
Neo
##araiosis
Großzehengrund
gesundheitliche
##occipital
Freund
sach
Verbindungen
intraluminalen
LP
Mot
204
Lungenkarzinom
ulnar
tracheales
FO
Tü
Computertom
abweich
178
regulär
##filiae
gegenwärtig
geboten
Abwägung
Tipp
Dres
Well
Durchfall
##yrin
##chirurgen
fas
Studienpopulation
sorgfältig
Regelmäßige
Berg
##long
##chlorid
##arrhythm
Prozen
##drücken
Subtyp
Schulen
##äqu
IIa
##hörigkeit
Äste
Liquorab
Verbrenn
könnte
Herzkrankheit
CCD
gela
##klasse
##flexion
behandelte
endokrine
##ozy
normwertig
##uspen
Oberschenkels
zentrisch
anteriore
EL
kortikal
Entfaltete
eingeschränkten
##eigenschaften
Unterbauchschmerzen
parafalzin
Hepar
Bandscheibenfä
##modal
##da
##lines
Camp
dur
Dermatitis
##ularb
Balance
##zenter
ärzt
##sex
Osteopene
Einkommen
##orientierter
reseziert
Penet
S7
gefährdet
##versch
chronischem
Carpus
Rejektionsgeschehen
Rhe
abgangsnah
keil
##signale
differenzialdiagnos
##stück
flächiger
Signifikanzniveau
prognostisch
neurodegener
Tot
Schilddrüse
Japan
Va
label
Conus
gewöl
sympath
Hirndrucks
##vesikal
##tivity
flach
Rinde
##oß
dos
##mand
##okonst
Signalpathologien
Harnrö
uteri
ausführliche
kleinsten
Viszeral
Exstirpation
Arbeitgeber
E30
##erklärung
schwieriger
Präeklampsie
Wolf
abgeschw
##resie
micro
##schreitenden
##jugulär
interessant
##osynov
12mm
Kolitis
Plazenta
leh
Osteoblasten
Lü
Entsprechende
Positronenemissionst
Betrachtet
##eichert
##relevante
Architekturstörung
##kod
Befundskizze
erstre
späten
##werteten
Prozedur
##forderung
band
##linsen
##zelle
PTBS
richtungweisende
invasiver
Dimere
##opathologie
##zentrums
Frühgeburt
##indigkeiten
##demen
##gäng
Oberbauchschmerzen
##jahres
##abbau
ant
unil
HWK4
5M
Serv
sorgfältige
Konflikt
##kür
##ungsgemäß
pT2
solches
breitbasige
MAP
heterogene
Diabetiker
frühere
##lat
mäßiggradige
Rotatorenmanschette
radikaler
##ogast
##sstudien
Steroide
Kaiser
##gesteron
##informationen
eingeschränkten
Regredientes
##assis
Andre
Schenkelhäl
routinemäßig
0307
Diagnostische
Alt
Moleküle
Anatom
durchsetzt
Applikations
##verfettung
zeitnah
##blast
Hirnparenchyms
Wirbelkörperfrakturen
Stroma
bruster
inferioren
kinder
wid
##artefakt
221
visuelle
##urium
##otrop
Expressions
Weichgewebs
typisches
##brechungen
Riss
gefallen
interventionellen
##segmenten
##apazität
Gemäß
Skelettanteile
ethischen
3cm
Stuttgart
jet
Bu
##ikrob
Glatte
Zentimeter
##tikaria
##ücke
mA
sagte
##unk
StuhlUntersuchungsauftrag
Außenkonturen
muk
abgesehen
Femora
vaskuläre
Sympath
Materialdislokation
eingetreten
Sanierung
##cks
##odese
Dou
##asarka
gefäß
120ml
total
##bänder
osteolytischer
Hoffnung
Lungenflü
carotides
Schrumpfniere
##kennungs
lineare
Prozeduren
Schnitts
Aderhautmel
stetig
##llinger
erfor
Basierend
antik
Zystektomie
gluteal
##ieme
##hernien
dementsprechend
bedenken
periartikul
subd
##medizinischer
##gabel
Früher
Rückfuß
Bru
##zelligen
differenzialdiagnostisch
Auffassung
Übersicht
Allergien
Endokarditis
intrapulmonale
##itierte
Aortenklappenersatz
Welle
korrelierte
genetischer
fettgesättigte
Vin
audi
älterer
Kalkaneus
Saniertes
begeg
Ausland
Fibulafraktur
zufällig
##oisch
##flexur
##ennung
##ettung
pharmakologische
Anasarka
154
Fettgewebs
intensivmedizinischen
Vent
zweiter
entfaltete
folglich
Konnek
Kyphosierung
##sempfehlungen
APF
##nähernd
Myelin
IIb
Arteriographie
##ka
Kohlenhyd
Zervixkarzinom
##schnitten
Allein
##omuskul
##lippe
adjus
Pruritus
fetale
##kons
anamnes
Belastbarkeit
G3
Nora
Lappenplastik
Ausgeprägtes
##ätzung
AWMF
##schleuse
subkaps
akzeptiert
wollte
kür
stärksten
intrabdominelle
Beschwer
Fingergelenke
##veillance
##kno
##estion
folgte
Komplexe
intraparenchym
spiegelt
Dexamethason
##oklavik
verteilte
unt
AUC
Guide
erbracht
plötzlich
Lungenmetastasen
malignomtyp
Unspezifische
geschilder
Papier
Zö
verzögert
altersentsprechenden
Drain
Ost
Mikrokalzifikationen
Cervix
Panik
Dusch
##omputert
qualitative
Konversion
versorgten
##rads
Pflegeheim
gei
##aktivitäten
##vation
##reisen
kommerz
umfassend
PRT
Somatostatin
Range
Cal
Drah
Erfahrungs
unklarem
natürliche
klinisches
##pithel
gerichtet
##ausdün
Profession
##drückt
Verwand
PFS
Immunglobulin
Konserv
Skelettsystems
Blutungsquelle
##ofug
komplement
##ichtra
Lim
koronarer
##zustände
##gleichen
##ariate
##mein
##ush
Lockerungssaum
Empfehlungsgrad
Schrei
##ison
Temporall
abgerundet
Tochter
Fortbildungs
Angrenzende
##vorrichtung
assoziierter
autoimmun
ICS
Genital
Teilbereich
verfolgen
Nichtbenutzung
##usstenose
Reform
Größenzunahme
##weiteren
hell
Klassifiz
Resultat
Tumorkonferenz
##fläch
derzeitigen
##otom
153
##schädigung
Pigtail
##ikum
##bulbär
Verdau
Reservoirs
Rib
##ga
Wasch
Übriger
##geräusche
##kontrasti
Bülaudrainage
integra
Verhältnisse
gesucht
zerebell
ausgerichtet
Verwir
übergew
Ärztinnen
##konstellation
##hosp
##uxt
##tific
klarer
##litaxel
LH
226
##ularbi
5A
Tos
alltä
atherosklerotische
Binnenecho
benötigten
evaluieren
##urts
Immunde
gemel
##aphys
Erfolge
##ülung
Spezies
##tisiert
##N1
##wendiger
ändern
Schaftbreite
##vesik
Colonrahmen
Rumpf
Zart
##denk
unabding
generelle
Warum
##traums
Tumort
Antibiotikum
ratio
bre
steil
Verglichen
##entzündung
##osf
168
subpleurale
##therapien
Zwang
##amine
Anreicherungsherde
##tics
Wachstumsfaktoren
wi
##bezogener
##organen
̈llinger
Intestinums
Pektoralis
machte
Kombinations
Trabek
##ablock
##uläres
akadem
Vorderwand
##einteilung
##asein
assoc
Outcomes
##gruente
osteoplastische
Lungenlazeration
##ianus
##odental
##anstaltung
##iklinik
zusammenfas
##scheidungen
vermittelte
Seitendifferenz
##verdichtung
Ausriss
Blood
Staphylokokken
BSG
167
##uspekte
161
Kalksalz
Einer
gelöst
herr
kompeten
Evidenzgrad
ausschließen
Dermatologie
##ceptor
granulomat
Occ
Sella
Pylor
##rigierten
11mm
##plung
objektive
konfrontiert
##kurs
##DI
Lithium
Antipsych
zirka
##terlymphknoten
##defekten
einheitliche
Synovitis
Lungenrundherde
sexueller
präklinischen
Ot
##muskeln
posttraumatisch
Subk
##äss
Beckenarterien
Att
thyre
impl
Extern
begann
Wurzelspitzen
##enhancement
157
##ohnheiten
äußere
anatomisch
##milch
anreicher
zellulären
Anterolisthesis
Bisph
III°
Vasospas
Kleinh
bindet
##urp
beispiel
##rationen
Trigger
Rundliche
##defin
linksventrikulär
reagiert
##handlung
##ünscht
periost
kariöse
ausgeführt
##werter
retrokardial
einzusetzen
Leukozytose
##ospor
gerechnet
Eosinoph
kontraindiziert
Mont
##modus
Pop
Referenzregion
osteoblas
##brüche
Europäischen
PAH
Aufmerksamkeits
Nervenwurzeln
##ferenzen
##fixierung
##ücksich
zerstör
##idt
Therapieplanung
Winter
Reizung
##figkeit
##antigen
deswegen
##graphie
besseres
##sky
mikrobiologischen
Formalin
Signalab
##aviren
Initiative
Statistische
Einwilligungs
##duc
##lokalisationen
veranlas
signalabges
Sigmadivertikulitis
Neurolep
Nervensystems
Amyloidose
##omputertomographie
Händ
##ündel
Skro
##athiop
Anwesenheit
Aufnahmeposition
##zuleiten
##ophosphamid
verf
empfohlenen
placebokontroll
Long
pertrochant
raschen
ICD10
Reviews
pflege
resez
Nanokoll
Änderung
wh
Frakt
##ementiert
einzub
Gegebenheiten
vergrö
parenchymatöse
##sonografie
Spannung
pankreaticus
Intermedi
##ränkung
##narbe
leuk
gestell
statische
Infekte
##aku
Differenzierbarkeit
passager
##rak
Supraspinatussehne
geeigneter
##suchen
Fazialis
##ykardien
##managements
Schmelz
Avulsion
Dipl
Nierensteine
Analk
selber
infratentoriellen
Ischämiefrühzeichen
##richten
##fortsatz
geschlossenes
##OLF
bewegen
CME
Präsentation
##58
Idee
##ätzten
##länder
Gewichtsreduktion
Keilbein
eviden
Proxim
##kontrast
##opatell
Beinarterien
Adhärenz
bisherige
analysieren
Samenblasen
##ächen
verab
benachbarten
##istern
untereinander
metast
monati
Symbol
mast
gesonder
Laryng
##osept
##sequenzen
##endosis
##dring
##ariat
##iforme
##sal
##KD
laborchemische
##bindungen
##üttung
Vereinzelt
##Med
multifaktor
Thematik
Untertunnelung
Zweitmalignom
reine
##oses
BRCA1
annähernd
radikale
##mikro
Lagebezie
Kurzachse
schwerwiegenden
##AA
Entw
Ekzem
##varizen
Antelisthesis
streif
##haltende
lumbale
Dementsprechend
mesenterialer
Tiefendurchmesser
035
Carcin
erm
Grundplatten
750
##inzision
##sungs
##quet
aspir
HG
beweisen
##dol
Schmerzsyndrom
##ichtiger
Regeneration
Prozentsatz
wöch
##ofem
informieren
Sz
##macht
Bearbeitung
151
Bauchorgane
##raums
mitgeteilt
##schte
##zugsweise
beleg
Angststörungen
orientierend
##pap
maskierte
Infarktareale
Azathiop
langstreckige
Breitbasige
##glukose
Douglas
Ov
geriatrischen
##effekte
##thyreoid
Spondylarthrosis
mikrobiologische
kavern
Ceftazidim
Lippen
##x8
##angehoben
Reparatur
durchführbar
##54
Restaging
Beispielsweise
Subm
ANV
Han
obligat
##cu
GT
Erleb
DLS
##komas
##copl
##stiger
umgekehrt
John
glaub
Perspektiven
##SE
prolab
Quadrat
##ulopathie
radiographisch
peribronchiale
##ladung
Noradren
##hmung
##eigung
Phant
##ects
massiver
##öses
##transfusion
Pflegepersonal
Down
anerkannt
##omon
##osakral
insulär
##verdacht
multizentrischen
Verzögerung
verordnet
hämorrhag
##opp
hervorrufen
158
Tumorstadium
Nachbehandlung
zentrales
Händen
normkalibrig
Behandlungsop
achs
Fen
Argument
Burs
ausgeglichen
##Ü
Paclitaxel
Resistenzen
Technetium
Stick
Gesell
##loss
Für
Datenschutz
tibi
test
##x2
##low
Markrinden
Hämatosinus
Ergometrie
##üben
Ungleich
CUP
Androgen
Erfolgsrate
##zit
verfolg
Tisch
##lichkeiten
zytotox
Einver
Bundesländern
Kirsch
vergessen
Laborator
entfernen
Furose
##textur
Dosisreduktion
##aktors
Sauerstoffsättigung
Frakturlinie
Cyclophosphamid
Cefotaxim
selb
Schilddrüsenkarzinom
Epik
grunds
frühes
Rang
allogener
Anterolisthese
Freiburg
Epiglot
##01
analysierten
##ächer
Mittlerweile
Trimen
##tent
Wirtschaft
frontales
Positive
##enzym
Leitungs
##hormone
identifizierten
NYHA
verringerte
Positronenemissionstomographie
##endym
Spe
##ationsrate
angeschlossen
Psychiater
dukt
Erreg
Bayern
konzip
Urethra
Oberbauchsonogramm
Prinzipiell
Einverständnis
Kontrolluntersuchung
Lernziele
Bürger
Johann
reinen
Glenohumer
Reihenfolge
##dyspnoe
##ementen
##oxic
Rötung
atemabhän
Handlungen
##oref
Pneumonische
Ausdauer
veget
abhängige
gefü
Fortschritt
Trom
schräg
Nierenvene
konsekutive
ALS
p53
##onfiguration
Tracheotomie
Alex
Proteins
Implantats
Großer
Triam
##mahlzeit
##uraler
1a
##plastische
##atinib
Füll
##gehobene
after
##ZK
Ausstrahlung
Azathioprin
##ilität
Lungenerkrankung
##ständigem
begründe
doppelb
Filtrationsrate
BL
##zeichnungen
Fernübertragung
##ective
CV
##verw
##ephalica
Knötchen
AMI
Borderline
erbrachte
Protonen
Intubations
verkalkt
##attacken
hyperech
Konvex
##atelektasen
Nervensystem
Osti
Urothelkarzinom
##geordnete
Winkelergüsse
Pharmakotherapie
Magne
Veröffentlichung
##ramiden
erleiden
Leberversagen
Gutachter
abnehmen
##osteosynthetischer
Endoleak
##enseits
##lug
##osynthetisch
Fit
Rückenmark
erschweren
##ärzt
umstritten
##ognition
##virus
Zystennieren
##sstudie
Sed
gestört
##mäßig
enth
##scapularis
##ondu
Freu
Mineralgehalt
Mastoidalzellen
##setzungs
Gemcit
westlichen
Lungenstauung
##isierende
inhomogenes
Kontusion
##orientierten
Valgus
Urologen
[...]
